unsigned char wake_word_recognition_model[] = {
  0x1c, 0x00, 0x00, 0x00, 0x54, 0x46, 0x4c, 0x33, 0x14, 0x00, 0x20, 0x00,
  0x1c, 0x00, 0x18, 0x00, 0x14, 0x00, 0x10, 0x00, 0x0c, 0x00, 0x00, 0x00,
  0x08, 0x00, 0x04, 0x00, 0x14, 0x00, 0x00, 0x00, 0x1c, 0x00, 0x00, 0x00,
  0x88, 0x00, 0x00, 0x00, 0x08, 0x01, 0x00, 0x00, 0x78, 0x16, 0x00, 0x00,
  0x88, 0x16, 0x00, 0x00, 0xe4, 0x31, 0x00, 0x00, 0x03, 0x00, 0x00, 0x00,
  0x01, 0x00, 0x00, 0x00, 0x04, 0x00, 0x00, 0x00, 0x22, 0xe8, 0xff, 0xff,
  0x0c, 0x00, 0x00, 0x00, 0x1c, 0x00, 0x00, 0x00, 0x3c, 0x00, 0x00, 0x00,
  0x0f, 0x00, 0x00, 0x00, 0x73, 0x65, 0x72, 0x76, 0x69, 0x6e, 0x67, 0x5f,
  0x64, 0x65, 0x66, 0x61, 0x75, 0x6c, 0x74, 0x00, 0x01, 0x00, 0x00, 0x00,
  0x04, 0x00, 0x00, 0x00, 0x6c, 0xff, 0xff, 0xff, 0x1e, 0x00, 0x00, 0x00,
  0x04, 0x00, 0x00, 0x00, 0x08, 0x00, 0x00, 0x00, 0x6f, 0x75, 0x74, 0x70,
  0x75, 0x74, 0x5f, 0x30, 0x00, 0x00, 0x00, 0x00, 0x01, 0x00, 0x00, 0x00,
  0x04, 0x00, 0x00, 0x00, 0x12, 0xea, 0xff, 0xff, 0x04, 0x00, 0x00, 0x00,
  0x0b, 0x00, 0x00, 0x00, 0x69, 0x6e, 0x70, 0x75, 0x74, 0x5f, 0x6c, 0x61,
  0x79, 0x65, 0x72, 0x00, 0x03, 0x00, 0x00, 0x00, 0x5c, 0x00, 0x00, 0x00,
  0x2c, 0x00, 0x00, 0x00, 0x04, 0x00, 0x00, 0x00, 0xb8, 0xff, 0xff, 0xff,
  0x22, 0x00, 0x00, 0x00, 0x04, 0x00, 0x00, 0x00, 0x13, 0x00, 0x00, 0x00,
  0x43, 0x4f, 0x4e, 0x56, 0x45, 0x52, 0x53, 0x49, 0x4f, 0x4e, 0x5f, 0x4d,
  0x45, 0x54, 0x41, 0x44, 0x41, 0x54, 0x41, 0x00, 0xdc, 0xff, 0xff, 0xff,
  0x21, 0x00, 0x00, 0x00, 0x04, 0x00, 0x00, 0x00, 0x13, 0x00, 0x00, 0x00,
  0x6d, 0x69, 0x6e, 0x5f, 0x72, 0x75, 0x6e, 0x74, 0x69, 0x6d, 0x65, 0x5f,
  0x76, 0x65, 0x72, 0x73, 0x69, 0x6f, 0x6e, 0x00, 0x08, 0x00, 0x0c, 0x00,
  0x08, 0x00, 0x04, 0x00, 0x08, 0x00, 0x00, 0x00, 0x20, 0x00, 0x00, 0x00,
  0x04, 0x00, 0x00, 0x00, 0x13, 0x00, 0x00, 0x00, 0x6d, 0x69, 0x6e, 0x5f,
  0x72, 0x75, 0x6e, 0x74, 0x69, 0x6d, 0x65, 0x5f, 0x76, 0x65, 0x72, 0x73,
  0x69, 0x6f, 0x6e, 0x00, 0x23, 0x00, 0x00, 0x00, 0x6c, 0x15, 0x00, 0x00,
  0x64, 0x15, 0x00, 0x00, 0x4c, 0x15, 0x00, 0x00, 0x30, 0x15, 0x00, 0x00,
  0x00, 0x15, 0x00, 0x00, 0x70, 0x14, 0x00, 0x00, 0x60, 0x10, 0x00, 0x00,
  0xd0, 0x0f, 0x00, 0x00, 0xc0, 0x03, 0x00, 0x00, 0xa0, 0x03, 0x00, 0x00,
  0x00, 0x03, 0x00, 0x00, 0xe0, 0x02, 0x00, 0x00, 0x40, 0x02, 0x00, 0x00,
  0x20, 0x02, 0x00, 0x00, 0x80, 0x01, 0x00, 0x00, 0x60, 0x01, 0x00, 0x00,
  0x2c, 0x01, 0x00, 0x00, 0x24, 0x01, 0x00, 0x00, 0x1c, 0x01, 0x00, 0x00,
  0x14, 0x01, 0x00, 0x00, 0x0c, 0x01, 0x00, 0x00, 0x04, 0x01, 0x00, 0x00,
  0xfc, 0x00, 0x00, 0x00, 0xf4, 0x00, 0x00, 0x00, 0xec, 0x00, 0x00, 0x00,
  0xe4, 0x00, 0x00, 0x00, 0xdc, 0x00, 0x00, 0x00, 0xd4, 0x00, 0x00, 0x00,
  0xcc, 0x00, 0x00, 0x00, 0xc4, 0x00, 0x00, 0x00, 0xbc, 0x00, 0x00, 0x00,
  0xb4, 0x00, 0x00, 0x00, 0x94, 0x00, 0x00, 0x00, 0x74, 0x00, 0x00, 0x00,
  0x04, 0x00, 0x00, 0x00, 0x3e, 0xeb, 0xff, 0xff, 0x04, 0x00, 0x00, 0x00,
  0x60, 0x00, 0x00, 0x00, 0x0c, 0x00, 0x00, 0x00, 0x08, 0x00, 0x0e, 0x00,
  0x08, 0x00, 0x04, 0x00, 0x08, 0x00, 0x00, 0x00, 0x10, 0x00, 0x00, 0x00,
  0x28, 0x00, 0x00, 0x00, 0x00, 0x00, 0x06, 0x00, 0x08, 0x00, 0x04, 0x00,
  0x06, 0x00, 0x00, 0x00, 0x04, 0x00, 0x00, 0x00, 0x01, 0x00, 0x00, 0x00,
  0xeb, 0x03, 0x00, 0x00, 0x0c, 0x00, 0x18, 0x00, 0x14, 0x00, 0x10, 0x00,
  0x0c, 0x00, 0x04, 0x00, 0x0c, 0x00, 0x00, 0x00, 0x81, 0x43, 0xda, 0x84,
  0xd3, 0x5a, 0x83, 0x35, 0x02, 0x00, 0x00, 0x00, 0x02, 0x00, 0x00, 0x00,
  0x04, 0x00, 0x00, 0x00, 0x06, 0x00, 0x00, 0x00, 0x32, 0x2e, 0x31, 0x37,
  0x2e, 0x30, 0x00, 0x00, 0xaa, 0xeb, 0xff, 0xff, 0x04, 0x00, 0x00, 0x00,
  0x10, 0x00, 0x00, 0x00, 0x00, 0x00, 0x00, 0x00, 0x00, 0x00, 0x00, 0x00,
  0x00, 0x00, 0x00, 0x00, 0x00, 0x00, 0x00, 0x00, 0xc6, 0xeb, 0xff, 0xff,
  0x04, 0x00, 0x00, 0x00, 0x10, 0x00, 0x00, 0x00, 0x31, 0x2e, 0x31, 0x34,
  0x2e, 0x30, 0x00, 0x00, 0x00, 0x00, 0x00, 0x00, 0x00, 0x00, 0x00, 0x00,
  0x8c, 0xd0, 0xff, 0xff, 0x90, 0xd0, 0xff, 0xff, 0x94, 0xd0, 0xff, 0xff,
  0x98, 0xd0, 0xff, 0xff, 0x9c, 0xd0, 0xff, 0xff, 0xa0, 0xd0, 0xff, 0xff,
  0xa4, 0xd0, 0xff, 0xff, 0xa8, 0xd0, 0xff, 0xff, 0xac, 0xd0, 0xff, 0xff,
  0xb0, 0xd0, 0xff, 0xff, 0xb4, 0xd0, 0xff, 0xff, 0xb8, 0xd0, 0xff, 0xff,
  0xbc, 0xd0, 0xff, 0xff, 0xc0, 0xd0, 0xff, 0xff, 0xc4, 0xd0, 0xff, 0xff,
  0x1e, 0xec, 0xff, 0xff, 0x04, 0x00, 0x00, 0x00, 0x24, 0x00, 0x00, 0x00,
  0x81, 0x1d, 0x1f, 0x6b, 0x16, 0x18, 0x1d, 0xad, 0x28, 0x7f, 0x03, 0x66,
  0x7d, 0x3b, 0x4b, 0x49, 0x4c, 0xda, 0xbb, 0xfa, 0x47, 0x09, 0xbb, 0x67,
  0x1a, 0xe9, 0x7f, 0x81, 0xe8, 0x07, 0xab, 0x0b, 0x33, 0xb5, 0xa8, 0x02,
  0x4e, 0xec, 0xff, 0xff, 0x04, 0x00, 0x00, 0x00, 0x10, 0x00, 0x00, 0x00,
  0x8a, 0x03, 0x00, 0x00, 0xb5, 0xf3, 0xff, 0xff, 0x91, 0xe6, 0xff, 0xff,
  0x9f, 0xfa, 0xff, 0xff, 0x6a, 0xec, 0xff, 0xff, 0x04, 0x00, 0x00, 0x00,
  0x90, 0x00, 0x00, 0x00, 0xfe, 0x26, 0x81, 0xd5, 0xe9, 0x2e, 0xc8, 0x07,
  0x40, 0x0a, 0xfb, 0xce, 0xf1, 0x30, 0xcb, 0xb1, 0xfb, 0xd7, 0x2c, 0xf6,
  0x32, 0x17, 0xfb, 0xe1, 0xec, 0xa0, 0xd4, 0x3b, 0xe2, 0x02, 0x12, 0x23,
  0x14, 0x0e, 0x12, 0x3a, 0x3b, 0x26, 0xe1, 0xdd, 0x03, 0x4d, 0x24, 0xe9,
  0x1f, 0xe5, 0x1f, 0xda, 0x25, 0xc6, 0xd5, 0x2a, 0x1d, 0x31, 0x15, 0xdd,
  0x3c, 0x26, 0xd2, 0x1a, 0x19, 0xd3, 0x81, 0xf6, 0x21, 0xef, 0x4e, 0x21,
  0x12, 0x3f, 0xe0, 0xf9, 0xbd, 0x18, 0x4e, 0xaf, 0x0e, 0x5d, 0x2c, 0x81,
  0x8d, 0x0d, 0x3d, 0xf9, 0xb4, 0x72, 0x3e, 0x10, 0xdb, 0x35, 0x10, 0x94,
  0xcc, 0xd8, 0x29, 0x08, 0x93, 0x3b, 0xfa, 0x02, 0xe9, 0x4b, 0x29, 0x78,
  0x94, 0x02, 0x02, 0x5b, 0x81, 0x57, 0x30, 0xd2, 0xe5, 0x07, 0xf5, 0xfd,
  0xe6, 0x03, 0x51, 0x03, 0xf9, 0xe1, 0x4b, 0xf9, 0x18, 0x03, 0x4a, 0x1b,
  0x22, 0xed, 0x20, 0x22, 0xd3, 0xcd, 0x90, 0x36, 0x32, 0xdf, 0x45, 0x35,
  0x2f, 0xe0, 0x4e, 0x07, 0x06, 0xed, 0xff, 0xff, 0x04, 0x00, 0x00, 0x00,
  0x10, 0x00, 0x00, 0x00, 0x71, 0x01, 0x00, 0x00, 0x1b, 0x05, 0x00, 0x00,
  0x95, 0xf9, 0xff, 0xff, 0xfe, 0xfe, 0xff, 0xff, 0x22, 0xed, 0xff, 0xff,
  0x04, 0x00, 0x00, 0x00, 0x90, 0x00, 0x00, 0x00, 0xe0, 0xe1, 0x20, 0xe3,
  0x1b, 0x11, 0x01, 0xea, 0x0a, 0x07, 0x07, 0x09, 0xf8, 0xe6, 0x4c, 0x89,
  0x0e, 0xdd, 0x2a, 0xf1, 0x10, 0x0f, 0x17, 0xf5, 0x4d, 0x3e, 0x51, 0xf7,
  0x26, 0x06, 0xfc, 0x3c, 0x7f, 0x2b, 0xf9, 0x0b, 0xf1, 0x21, 0xd0, 0x02,
  0x11, 0x22, 0xeb, 0xfd, 0x49, 0xf2, 0x04, 0xd2, 0xfd, 0xd7, 0x81, 0xe9,
  0xed, 0x52, 0x0e, 0x28, 0x55, 0xba, 0x1d, 0xef, 0xc2, 0xf0, 0xc9, 0x27,
  0x14, 0x18, 0x36, 0x25, 0x0f, 0xd8, 0xeb, 0x02, 0xc7, 0x30, 0xb7, 0x2f,
  0x22, 0xb9, 0x1a, 0x29, 0xff, 0x35, 0x2d, 0x30, 0x22, 0x03, 0x11, 0x9b,
  0xe8, 0x0a, 0xb4, 0x19, 0xa5, 0x04, 0x0a, 0x1f, 0x11, 0x5f, 0x0d, 0xad,
  0x81, 0x06, 0xb1, 0xdd, 0xa5, 0x21, 0xf0, 0xe9, 0x40, 0xd2, 0xda, 0x2a,
  0xa2, 0xc0, 0xbb, 0x0a, 0x2a, 0x1e, 0xc6, 0xe9, 0x81, 0xf9, 0xf9, 0x12,
  0xea, 0x2e, 0x00, 0xe7, 0x30, 0x2f, 0x31, 0xf3, 0x06, 0xe5, 0x31, 0xeb,
  0x0a, 0xfe, 0x56, 0xe2, 0x04, 0xd1, 0xf4, 0x04, 0xbe, 0xed, 0xff, 0xff,
  0x04, 0x00, 0x00, 0x00, 0x10, 0x00, 0x00, 0x00, 0xec, 0xfb, 0xff, 0xff,
  0xe0, 0xfb, 0xff, 0xff, 0x11, 0x04, 0x00, 0x00, 0xd5, 0x03, 0x00, 0x00,
  0xda, 0xed, 0xff, 0xff, 0x04, 0x00, 0x00, 0x00, 0x90, 0x00, 0x00, 0x00,
  0x15, 0xdf, 0x38, 0x04, 0x33, 0xac, 0xb5, 0x6f, 0xc6, 0x28, 0x08, 0xf5,
  0xeb, 0x0c, 0x37, 0xf6, 0xe3, 0xc2, 0xe1, 0x7f, 0x09, 0x00, 0xec, 0xff,
  0x32, 0xbf, 0xf6, 0xd5, 0x42, 0xc3, 0xe2, 0x3a, 0xb2, 0x17, 0xc0, 0x04,
  0xb7, 0x10, 0xd5, 0x0a, 0x1f, 0xec, 0x05, 0x47, 0x24, 0xcb, 0x04, 0x17,
  0xd7, 0xf6, 0xea, 0x7f, 0x0b, 0x45, 0xef, 0x23, 0x1a, 0x34, 0xdf, 0x0c,
  0x2b, 0xf7, 0xe7, 0x15, 0xea, 0xf0, 0x8c, 0xb5, 0xe7, 0xf2, 0xc2, 0x8a,
  0xd9, 0xc2, 0xb0, 0x28, 0xe9, 0xed, 0x45, 0xe8, 0xc4, 0xe6, 0x1a, 0x39,
  0x48, 0x1b, 0xd6, 0xcf, 0xd6, 0xd7, 0x04, 0x81, 0x2d, 0xca, 0xea, 0x06,
  0x03, 0x58, 0xb4, 0x20, 0x1a, 0x21, 0x25, 0xc1, 0x14, 0x37, 0x24, 0x14,
  0x02, 0x0f, 0xee, 0x31, 0x15, 0xf7, 0x16, 0xec, 0xf4, 0x06, 0x07, 0x18,
  0xf7, 0x33, 0x03, 0x24, 0xe5, 0x22, 0xfb, 0x0f, 0x2d, 0x08, 0xfc, 0x0b,
  0x0b, 0xda, 0x1b, 0x12, 0xef, 0xc7, 0x08, 0x02, 0xe4, 0xc8, 0x05, 0x81,
  0x76, 0xee, 0xff, 0xff, 0x04, 0x00, 0x00, 0x00, 0x10, 0x00, 0x00, 0x00,
  0x4a, 0xfb, 0xff, 0xff, 0xa4, 0xfc, 0xff, 0xff, 0x0f, 0xf2, 0xff, 0xff,
  0x60, 0xf7, 0xff, 0xff, 0x92, 0xee, 0xff, 0xff, 0x04, 0x00, 0x00, 0x00,
  0x00, 0x0c, 0x00, 0x00, 0x26, 0x02, 0x05, 0xea, 0xe3, 0x1d, 0x07, 0xbc,
  0x18, 0xed, 0xcc, 0xfa, 0xd0, 0x24, 0xe4, 0xf5, 0x0c, 0xd4, 0xeb, 0xe5,
  0xd5, 0xea, 0xf5, 0x1b, 0xe0, 0xee, 0x49, 0xc6, 0x48, 0xe8, 0x30, 0xc4,
  0xc8, 0x3c, 0x56, 0xfc, 0x39, 0xda, 0x7f, 0xd0, 0xd2, 0x48, 0x17, 0x2f,
  0xef, 0xe0, 0x5a, 0x12, 0x1b, 0x00, 0x94, 0xef, 0xd9, 0x0a, 0x18, 0xe7,
  0x25, 0xd6, 0xab, 0xf6, 0xf3, 0x0a, 0xf8, 0xf5, 0xff, 0xdb, 0xc6, 0xc8,
  0xfe, 0x0d, 0x0f, 0xc3, 0xe8, 0xf2, 0x09, 0xee, 0xf9, 0x0a, 0xff, 0xf8,
  0xcf, 0xfd, 0xfb, 0x14, 0xed, 0x2b, 0xe5, 0xef, 0xcc, 0x10, 0xea, 0x22,
  0xd4, 0x05, 0x02, 0x00, 0x1c, 0x24, 0x04, 0xed, 0xef, 0x29, 0x2f, 0xe1,
  0xf6, 0x0d, 0xc4, 0x02, 0xd2, 0x02, 0x2e, 0x24, 0x0c, 0xd0, 0xea, 0xc9,
  0xc7, 0x23, 0x0f, 0x0d, 0xf1, 0xa9, 0xb9, 0x9e, 0xee, 0x06, 0xdc, 0xd6,
  0x8f, 0xbf, 0xcd, 0xcc, 0xe3, 0xdd, 0x04, 0xbc, 0x81, 0xd4, 0xaa, 0xde,
  0x9a, 0xbb, 0xbe, 0xc4, 0xd2, 0xd3, 0x09, 0xd3, 0xfe, 0xa9, 0xb0, 0xf2,
  0xdb, 0xfb, 0x35, 0xf1, 0x0c, 0x9c, 0xfc, 0xc0, 0x4e, 0x18, 0x2b, 0xf9,
  0x23, 0xc8, 0x1c, 0xb6, 0x53, 0x0f, 0x07, 0x00, 0x01, 0x0d, 0x39, 0xc4,
  0x49, 0xf8, 0x95, 0xf7, 0xc7, 0x32, 0xd2, 0xff, 0x27, 0xf5, 0xc4, 0xe6,
  0xdd, 0x57, 0x0a, 0x14, 0x0d, 0x0f, 0x0d, 0xf9, 0x11, 0x22, 0xf3, 0x01,
  0x57, 0x11, 0xff, 0x11, 0xf8, 0xda, 0xdf, 0xe8, 0x40, 0xfc, 0xcc, 0xf1,
  0x02, 0x42, 0x0f, 0xdd, 0x63, 0x0a, 0xf5, 0xe9, 0x1e, 0x6d, 0xd5, 0xed,
  0x54, 0x31, 0xf0, 0x1d, 0xef, 0x5e, 0x1d, 0xee, 0x14, 0x0d, 0xf8, 0x24,
  0x13, 0x3e, 0xd2, 0x28, 0x14, 0x1c, 0x22, 0x0f, 0x47, 0x4c, 0x15, 0x07,
  0x0e, 0x0b, 0xac, 0xfe, 0x09, 0x12, 0xe4, 0xf9, 0x17, 0xe7, 0xb6, 0xd7,
  0xb8, 0x6c, 0xc2, 0x15, 0xf4, 0x0b, 0x47, 0xf8, 0x0e, 0xd1, 0x37, 0xc1,
  0x08, 0x14, 0x2d, 0x29, 0xd2, 0xca, 0x22, 0x00, 0xeb, 0xaf, 0x81, 0xcd,
  0xbd, 0x03, 0xc9, 0x07, 0xc6, 0xfc, 0xd3, 0x27, 0x17, 0xfe, 0x18, 0xfd,
  0xc2, 0x0d, 0x1f, 0x15, 0x24, 0xf0, 0xea, 0x25, 0xc3, 0xe9, 0xd8, 0x12,
  0x2f, 0xf4, 0x12, 0x4c, 0xd8, 0x0e, 0xf5, 0x16, 0x18, 0xd6, 0xfe, 0x33,
  0xdc, 0xe8, 0x3a, 0x11, 0x09, 0x86, 0xe2, 0xbf, 0xd9, 0x26, 0x5c, 0xf1,
  0x1d, 0xbe, 0xfd, 0xb8, 0xbb, 0xdd, 0x07, 0x22, 0x0e, 0xa7, 0xc2, 0x39,
  0x2b, 0xe7, 0x43, 0xea, 0xd2, 0x81, 0xb4, 0xd3, 0x09, 0xc7, 0x1a, 0x27,
  0x13, 0xbc, 0xbe, 0x16, 0xfe, 0xe5, 0x34, 0xbc, 0x13, 0xc5, 0xe1, 0x07,
  0xed, 0xfd, 0xf7, 0xfc, 0xb7, 0xb9, 0x01, 0xdb, 0x22, 0xfa, 0xda, 0xff,
  0xd6, 0xd0, 0x05, 0xe7, 0x61, 0x33, 0xe9, 0x39, 0xe2, 0x1f, 0x00, 0x4a,
  0x3e, 0xc8, 0xe7, 0x00, 0xf7, 0x57, 0xe7, 0xe6, 0x65, 0xdf, 0x47, 0x13,
  0x3c, 0x7f, 0x2d, 0xcd, 0x52, 0x3e, 0xe2, 0x16, 0x21, 0x15, 0xff, 0x14,
  0x6b, 0x14, 0x25, 0x52, 0xef, 0x76, 0x40, 0x3d, 0x07, 0x26, 0x25, 0xeb,
  0x38, 0x31, 0x40, 0x31, 0x65, 0x59, 0x39, 0x06, 0x62, 0x6c, 0x64, 0xd7,
  0x62, 0xf8, 0xc5, 0x28, 0x03, 0x68, 0xe7, 0x29, 0x4c, 0xd7, 0xce, 0xe1,
  0xf3, 0x3c, 0x02, 0x5e, 0x3e, 0x08, 0x40, 0xeb, 0x51, 0x5c, 0xee, 0xfa,
  0xd7, 0x0e, 0x27, 0x28, 0x00, 0x5c, 0x2c, 0xe3, 0x3b, 0x21, 0x27, 0xe7,
  0x35, 0xf7, 0x59, 0x1e, 0x0c, 0xf6, 0xf7, 0x14, 0xec, 0xf3, 0x12, 0xfd,
  0x45, 0xf8, 0x2f, 0x0e, 0x01, 0x2b, 0x39, 0xbc, 0x3a, 0x22, 0x14, 0x02,
  0x0c, 0x25, 0x27, 0x06, 0x65, 0x10, 0x08, 0x03, 0x2e, 0x35, 0xfd, 0xcf,
  0xf9, 0xf4, 0xbf, 0x28, 0xfd, 0x75, 0xce, 0xda, 0xc1, 0xe4, 0x95, 0xea,
  0x97, 0x6e, 0xd2, 0x14, 0xe4, 0xe3, 0x0e, 0xe9, 0xf4, 0x2e, 0xed, 0xf8,
  0xec, 0x1d, 0x2f, 0x1e, 0xfe, 0xfc, 0x30, 0x15, 0xce, 0xe1, 0x81, 0x08,
  0xbd, 0x07, 0xb9, 0x0a, 0xa3, 0x92, 0xd5, 0xad, 0xe9, 0x2a, 0x9c, 0x1a,
  0x27, 0x9c, 0x25, 0x07, 0xca, 0xd6, 0x9c, 0xc0, 0x0b, 0x27, 0x18, 0x0c,
  0x1c, 0x8f, 0x1c, 0xd6, 0xf2, 0xe3, 0xbf, 0xec, 0xfc, 0x25, 0xc0, 0xd8,
  0xa4, 0xb2, 0xd6, 0xc1, 0xe7, 0xf9, 0xf1, 0x21, 0xc5, 0xe9, 0x9d, 0xdc,
  0xbf, 0x99, 0xb1, 0x0a, 0x93, 0xc1, 0xae, 0xc1, 0xae, 0xee, 0xc2, 0xa3,
  0xbe, 0xdc, 0xdb, 0xd3, 0xe5, 0x97, 0xd6, 0xd1, 0xfd, 0xdc, 0x1e, 0xd5,
  0x21, 0xaf, 0x00, 0xbc, 0x33, 0x0a, 0x39, 0xf9, 0x05, 0xcf, 0x48, 0xb0,
  0x66, 0x2c, 0x2b, 0x18, 0x2d, 0xd4, 0x3b, 0xdd, 0x2b, 0x15, 0xe6, 0xf0,
  0x17, 0x43, 0x48, 0xef, 0x34, 0xef, 0x8c, 0xf3, 0xdc, 0x7f, 0xda, 0x00,
  0xec, 0xf7, 0xae, 0xf2, 0xda, 0x3b, 0xc4, 0x45, 0xde, 0xf0, 0xcd, 0xcf,
  0xea, 0xf9, 0xcc, 0xe9, 0xdc, 0xf6, 0x07, 0x1c, 0x27, 0xf9, 0xe2, 0x26,
  0xff, 0xf4, 0x05, 0xfc, 0x09, 0xea, 0xf7, 0x19, 0xd4, 0x39, 0x0b, 0xf3,
  0xcd, 0xec, 0x37, 0xe9, 0xec, 0x29, 0xea, 0xc7, 0xec, 0xef, 0x24, 0x02,
  0xf9, 0xe0, 0xf0, 0x1c, 0xd6, 0xe3, 0xf9, 0x22, 0xf2, 0xf4, 0x0d, 0x40,
  0xf5, 0xe0, 0xf5, 0x24, 0xe7, 0xf5, 0x08, 0xd8, 0x07, 0xc0, 0x12, 0x2e,
  0xa6, 0x04, 0x17, 0x19, 0x3e, 0xda, 0xbc, 0x0d, 0xa8, 0x1b, 0x21, 0x11,
  0x0d, 0xbf, 0xbe, 0x0c, 0xc2, 0x0c, 0xed, 0x24, 0x10, 0xd5, 0xe8, 0x8b,
  0xfb, 0x05, 0xa1, 0xed, 0xd0, 0x98, 0x81, 0xc5, 0x36, 0xf9, 0xba, 0xe9,
  0xcb, 0xed, 0xa9, 0x8d, 0x55, 0xe0, 0xd2, 0xe4, 0xde, 0x09, 0xdc, 0xcd,
  0x0f, 0xed, 0x1d, 0xe0, 0x01, 0x2e, 0x49, 0xca, 0xfc, 0x02, 0xec, 0x05,
  0xf0, 0xe2, 0x14, 0x06, 0xee, 0x1a, 0x1d, 0x0a, 0x0b, 0xe0, 0x19, 0xfa,
  0xe7, 0x2b, 0x36, 0x48, 0x2d, 0xc5, 0x28, 0x20, 0xf7, 0xef, 0x01, 0xfc,
  0x02, 0x81, 0x04, 0x18, 0xed, 0x1d, 0xf0, 0x0a, 0x20, 0xb6, 0x19, 0xd4,
  0xe7, 0xd0, 0x2c, 0x04, 0x12, 0xad, 0x1a, 0x00, 0xff, 0x12, 0xf3, 0xed,
  0xe3, 0xab, 0xcd, 0xd8, 0xff, 0x26, 0x26, 0x0b, 0x14, 0xc9, 0x35, 0xb7,
  0xdf, 0xee, 0x1a, 0xc2, 0xee, 0xb0, 0xe2, 0x20, 0x14, 0x0e, 0x10, 0x1b,
  0xd2, 0xdc, 0xe9, 0xd8, 0x0b, 0x67, 0x37, 0x1b, 0xbd, 0x16, 0xd1, 0xea,
  0x23, 0x24, 0xd8, 0xc7, 0x1a, 0x08, 0x81, 0xec, 0x0b, 0x00, 0x10, 0xfa,
  0xca, 0xce, 0xe2, 0xb9, 0xdb, 0xec, 0xed, 0x07, 0xd8, 0xd8, 0x9f, 0x00,
  0xda, 0x0b, 0x1b, 0x4d, 0x2c, 0x2d, 0xf6, 0xbd, 0x2f, 0x18, 0x31, 0x00,
  0x28, 0x19, 0xed, 0xcb, 0x50, 0xe3, 0x04, 0x10, 0xe1, 0x40, 0xcf, 0xdd,
  0x2b, 0xee, 0xca, 0x0b, 0xdb, 0x36, 0xa3, 0x29, 0x49, 0xdc, 0xd0, 0x1d,
  0xbf, 0x3a, 0xc2, 0xec, 0x1d, 0x0f, 0x11, 0x14, 0x0d, 0x55, 0x9d, 0x1d,
  0x24, 0xe4, 0x29, 0x28, 0xdc, 0xf9, 0xd0, 0x0a, 0x3a, 0xc4, 0xfd, 0x14,
  0xe7, 0x3e, 0x13, 0xe4, 0x63, 0xf4, 0x11, 0x11, 0x01, 0x33, 0x1b, 0xcb,
  0x79, 0x09, 0x26, 0x1f, 0x28, 0x33, 0x2c, 0x22, 0x25, 0x16, 0xf9, 0x2e,
  0xfb, 0x49, 0x14, 0x27, 0x66, 0xda, 0xb8, 0xff, 0xfb, 0x36, 0xb5, 0x09,
  0x20, 0xd3, 0xfe, 0xfa, 0x07, 0x3a, 0xe6, 0xd1, 0x4b, 0x19, 0x34, 0x30,
  0x27, 0x33, 0x26, 0x36, 0x6b, 0x49, 0x10, 0x23, 0x41, 0x14, 0xde, 0x04,
  0x1a, 0xfb, 0x19, 0x4e, 0xf9, 0x7f, 0x2e, 0x62, 0x2c, 0x2c, 0x28, 0x2f,
  0x34, 0x57, 0x32, 0xe0, 0x29, 0x0c, 0xd7, 0x39, 0xe8, 0x34, 0x02, 0x08,
  0x14, 0xc6, 0xbd, 0x12, 0xd8, 0x0c, 0x9c, 0x47, 0xfa, 0xfd, 0x5e, 0xfb,
  0x15, 0xbb, 0xb0, 0xf0, 0xf1, 0x1b, 0x14, 0x42, 0x13, 0x18, 0xf0, 0x51,
  0x13, 0xed, 0xe0, 0x4d, 0xf0, 0x32, 0xcd, 0x2e, 0x21, 0x37, 0xdd, 0x01,
  0x17, 0xc8, 0xb0, 0xf4, 0x0a, 0xf0, 0x42, 0xfe, 0x29, 0x57, 0xe5, 0x12,
  0xdd, 0x04, 0xe4, 0x1e, 0x34, 0x03, 0x0c, 0xff, 0xcd, 0x2b, 0xc7, 0x14,
  0x0a, 0x8e, 0xe5, 0x30, 0xa9, 0xf0, 0x12, 0x3f, 0x1d, 0xf0, 0xbd, 0x5a,
  0xe6, 0xd4, 0xd3, 0x0b, 0x28, 0x91, 0xdb, 0x74, 0xee, 0x33, 0x07, 0xd4,
  0xf2, 0x81, 0xd4, 0xd4, 0xc8, 0xe8, 0x0f, 0xcb, 0xe5, 0x9e, 0xe7, 0x06,
  0x08, 0xf9, 0x07, 0x37, 0x0b, 0x0f, 0xa1, 0x33, 0x33, 0xd8, 0x0a, 0x0d,
  0x23, 0xe4, 0xd5, 0xf9, 0x3b, 0x1f, 0x18, 0xfc, 0x11, 0x4d, 0xe1, 0xac,
  0x43, 0x18, 0xf0, 0x25, 0xf3, 0x27, 0xc2, 0xf8, 0x45, 0xe0, 0xd6, 0x0e,
  0xff, 0x6b, 0xe0, 0xf6, 0x7f, 0xf7, 0x31, 0x04, 0x28, 0x53, 0x29, 0x07,
  0xf2, 0x13, 0x20, 0x32, 0x2d, 0x1c, 0x17, 0x7a, 0x16, 0x31, 0x30, 0x37,
  0x1d, 0x16, 0x45, 0x58, 0xdb, 0x25, 0x48, 0x44, 0x55, 0xe3, 0x1a, 0x31,
  0xd1, 0x0c, 0x2b, 0x08, 0x41, 0xcf, 0x45, 0x07, 0xf1, 0x04, 0xe3, 0x28,
  0x0e, 0xd7, 0xfb, 0x3e, 0xcb, 0x18, 0x2c, 0xef, 0xea, 0xde, 0xd6, 0xe1,
  0x0c, 0x1d, 0xf7, 0xdd, 0x18, 0x14, 0x10, 0xc3, 0xdf, 0xae, 0x0d, 0x0a,
  0xde, 0xef, 0xf7, 0xd6, 0x15, 0xf9, 0x11, 0xdd, 0x14, 0x0a, 0x1b, 0xa7,
  0x21, 0x17, 0x10, 0x0d, 0xfb, 0x17, 0x16, 0xf2, 0xf4, 0xf8, 0x91, 0xf6,
  0xf3, 0x15, 0xdc, 0xfe, 0xe3, 0xe8, 0x9c, 0xdc, 0x81, 0x21, 0xe6, 0xbc,
  0x0e, 0xca, 0xff, 0xbc, 0xe5, 0x14, 0xf6, 0xf9, 0x07, 0x0c, 0x28, 0xf8,
  0x03, 0xe9, 0x28, 0xc9, 0xf5, 0x05, 0xf8, 0x0e, 0xe3, 0xd9, 0x01, 0x10,
  0xe9, 0xd0, 0xc0, 0xcf, 0xe6, 0x14, 0xb6, 0xe9, 0xf3, 0xb9, 0xc5, 0xbf,
  0xd9, 0xfb, 0xbc, 0xdd, 0xe4, 0xcb, 0xf1, 0xca, 0xf8, 0xfd, 0x9c, 0x25,
  0x30, 0xf7, 0x37, 0xe6, 0x15, 0xe5, 0xff, 0x8a, 0x25, 0x07, 0x19, 0xf9,
  0xd8, 0xe0, 0x0c, 0x09, 0x34, 0xfb, 0xd8, 0xff, 0xc1, 0xf8, 0x81, 0xfd,
  0x2b, 0xc4, 0xa7, 0xe1, 0xf4, 0x08, 0xea, 0xcc, 0xec, 0x04, 0xff, 0xec,
  0x2c, 0x27, 0x1f, 0xa4, 0xef, 0xeb, 0xc0, 0x26, 0x37, 0xfd, 0x21, 0x30,
  0xe8, 0x21, 0x2f, 0x35, 0xdd, 0xe6, 0x0e, 0x34, 0xf8, 0x0f, 0x02, 0x12,
  0x34, 0xae, 0x4a, 0x38, 0xc4, 0xf7, 0x28, 0x06, 0x07, 0xab, 0x02, 0x06,
  0xd2, 0x1c, 0xea, 0xf3, 0x00, 0xc1, 0xed, 0x25, 0xed, 0x0b, 0x0c, 0xff,
  0x2a, 0xd0, 0xd9, 0xf3, 0xf8, 0xe1, 0x08, 0x14, 0x1e, 0xad, 0xe4, 0xef,
  0x11, 0xe1, 0xe7, 0x36, 0x27, 0xeb, 0xe9, 0x31, 0xfa, 0x04, 0xfa, 0x1f,
  0x1b, 0xee, 0xfc, 0x0e, 0xc5, 0xfd, 0xfc, 0xe8, 0xe2, 0xde, 0x37, 0xe1,
  0xda, 0x1a, 0xbe, 0x0a, 0x03, 0xc5, 0x4a, 0x0d, 0xbd, 0xee, 0x05, 0x46,
  0xe8, 0xdc, 0xd4, 0x0c, 0xbd, 0x01, 0xd2, 0x56, 0x0c, 0xd0, 0x00, 0xf0,
  0x87, 0x1d, 0x23, 0x07, 0x0e, 0xc3, 0x0a, 0xe1, 0xae, 0xe5, 0xd9, 0x2b,
  0xd7, 0xaf, 0x33, 0x27, 0xfa, 0x28, 0x0f, 0x15, 0xdf, 0x81, 0xe7, 0x1b,
  0x07, 0xca, 0x46, 0x26, 0xe7, 0xdc, 0x21, 0x1a, 0xa7, 0xf9, 0x32, 0xb1,
  0x46, 0xa1, 0x08, 0x10, 0xcb, 0x15, 0x0e, 0xbe, 0x1b, 0xef, 0x33, 0xcb,
  0x15, 0x05, 0xd0, 0x46, 0x14, 0xce, 0x3e, 0x4c, 0xda, 0x05, 0x1a, 0xff,
  0xf9, 0xde, 0xe2, 0xd0, 0x21, 0x02, 0xf6, 0x24, 0xc2, 0xd1, 0xaf, 0xea,
  0xdd, 0xd4, 0xab, 0xea, 0x9c, 0xc4, 0x81, 0xd4, 0xd7, 0xea, 0xf4, 0xda,
  0x02, 0xdc, 0xf3, 0xb6, 0x1d, 0x25, 0x2b, 0x16, 0x05, 0xb5, 0x1b, 0xc6,
  0x16, 0x02, 0xfb, 0x13, 0x19, 0xf7, 0x1d, 0xec, 0x0f, 0x01, 0x0c, 0xf9,
  0xf3, 0x01, 0x25, 0x16, 0x1f, 0x22, 0x21, 0x26, 0x22, 0x26, 0x28, 0x1d,
  0xe9, 0xee, 0xc0, 0x02, 0xdb, 0x04, 0x24, 0x1e, 0xea, 0xcb, 0xdd, 0xd8,
  0xd2, 0xee, 0x01, 0x17, 0xf4, 0xcc, 0x12, 0xd8, 0xf1, 0xc2, 0x18, 0xcc,
  0xc3, 0xfd, 0x06, 0x0c, 0x14, 0xd0, 0xd8, 0x10, 0x05, 0x08, 0xf7, 0x27,
  0x04, 0xc4, 0xef, 0xd9, 0x0b, 0x0a, 0xef, 0xff, 0xea, 0x17, 0xf7, 0x06,
  0x07, 0xfe, 0xd9, 0x07, 0xdb, 0x05, 0x03, 0xc3, 0x36, 0x08, 0xcc, 0xcd,
  0xc5, 0x08, 0x81, 0xa9, 0x14, 0xde, 0xcd, 0xe3, 0xa6, 0x19, 0xe2, 0xd2,
  0x17, 0xbd, 0xbb, 0xd7, 0x0b, 0xf7, 0x0a, 0xbd, 0x03, 0xf3, 0x08, 0xce,
  0x16, 0x10, 0x3b, 0xb7, 0xf3, 0x04, 0xd1, 0x0b, 0xfd, 0xed, 0x14, 0x3d,
  0xe8, 0x00, 0x0a, 0x2f, 0xea, 0x08, 0x0a, 0x49, 0xcb, 0x33, 0x1a, 0x1d,
  0x21, 0xd4, 0x2e, 0x3c, 0xd7, 0x05, 0x21, 0x33, 0x2c, 0xb6, 0x2b, 0x1e,
  0xa3, 0x41, 0x49, 0x32, 0x2f, 0xc1, 0x11, 0x09, 0xcc, 0x14, 0x42, 0x0d,
  0x34, 0xc1, 0xfd, 0xd7, 0x25, 0xee, 0xca, 0x02, 0xbe, 0x34, 0xbd, 0xba,
  0x49, 0xce, 0xaa, 0xbd, 0xdd, 0x2a, 0xdf, 0xb5, 0x18, 0xc0, 0x0a, 0xf2,
  0xf3, 0x42, 0x37, 0xe1, 0xfd, 0xfd, 0x09, 0x09, 0xd7, 0x20, 0x17, 0x28,
  0xab, 0x03, 0xf5, 0xff, 0x35, 0x15, 0x31, 0x70, 0x9a, 0x46, 0x65, 0x45,
  0x3c, 0xf6, 0x19, 0x26, 0xb3, 0x49, 0x29, 0x1c, 0x17, 0xb1, 0x2c, 0x20,
  0xb7, 0x30, 0x42, 0x19, 0x3a, 0xa2, 0x40, 0xd9, 0xcb, 0x16, 0x4c, 0x25,
  0x08, 0xb2, 0x10, 0x01, 0xec, 0x07, 0xef, 0xed, 0x0a, 0x93, 0xe3, 0x19,
  0x05, 0x1c, 0xfa, 0xf4, 0xf5, 0xb0, 0x04, 0x90, 0xf1, 0xe7, 0x81, 0xe6,
  0xd5, 0xc0, 0xd3, 0xe2, 0x48, 0x1b, 0x22, 0x35, 0xeb, 0x32, 0xc3, 0x6f,
  0x38, 0xe2, 0x1b, 0x4b, 0x0b, 0x24, 0xb0, 0xf6, 0x33, 0xf3, 0xf9, 0xfb,
  0x0d, 0x0e, 0x98, 0x57, 0xbf, 0x1a, 0x2d, 0x0f, 0x1b, 0x1b, 0xa6, 0x2f,
  0xb9, 0x18, 0xeb, 0xf1, 0xf3, 0x20, 0xb1, 0x30, 0xee, 0x47, 0x03, 0x29,
  0xe6, 0x38, 0x02, 0x1d, 0x02, 0x1a, 0x49, 0x41, 0x29, 0x24, 0x81, 0xf3,
  0x32, 0x14, 0x0e, 0x2f, 0x58, 0x0e, 0x93, 0x37, 0x6e, 0xef, 0x33, 0x4d,
  0x5b, 0xec, 0xd5, 0x03, 0x2a, 0x1e, 0x50, 0x5c, 0x4f, 0x0f, 0xac, 0x0d,
  0x46, 0x48, 0x00, 0x53, 0x08, 0x13, 0x9a, 0xfb, 0x55, 0x38, 0xc4, 0x49,
  0x50, 0x23, 0xd9, 0x2e, 0xca, 0xf9, 0x35, 0x05, 0xf8, 0xe1, 0xfb, 0x26,
  0xbf, 0x19, 0x0f, 0x14, 0x20, 0xc1, 0x59, 0x36, 0xf4, 0x0f, 0x00, 0x49,
  0xf8, 0xef, 0x30, 0x0b, 0xf6, 0x0e, 0x3d, 0xf9, 0xff, 0xb9, 0xf3, 0xe8,
  0x1e, 0x05, 0xf4, 0xe1, 0x0c, 0xe3, 0x05, 0x1c, 0xeb, 0x1e, 0xb8, 0x1a,
  0x0d, 0xe0, 0xf5, 0x46, 0x36, 0xf9, 0x48, 0x27, 0x0a, 0xd4, 0xf3, 0x0d,
  0x00, 0xe7, 0x10, 0x27, 0x19, 0xe0, 0xff, 0xfe, 0xeb, 0x08, 0x00, 0x04,
  0xfd, 0x2c, 0xf7, 0x81, 0x34, 0xd9, 0x95, 0x04, 0xe7, 0x14, 0x8c, 0xb7,
  0x16, 0xb8, 0xc6, 0xc1, 0xe5, 0xf4, 0xc6, 0xb6, 0x42, 0xfc, 0xee, 0xe7,
  0xfb, 0x00, 0xf4, 0xb5, 0xd3, 0x13, 0x16, 0x0d, 0x25, 0xfe, 0x41, 0x33,
  0xd7, 0x25, 0x1d, 0x30, 0x09, 0xde, 0x21, 0x30, 0xd8, 0x2d, 0x1c, 0x0d,
  0x30, 0xe4, 0x23, 0x39, 0x04, 0x1d, 0x2f, 0x21, 0x1b, 0xa8, 0x0a, 0x2f,
  0xdb, 0xf8, 0xfe, 0x1a, 0x2b, 0xb8, 0xe1, 0x11, 0xe4, 0xf6, 0x18, 0x18,
  0x26, 0xac, 0xe6, 0xf2, 0x06, 0x0a, 0xe5, 0x04, 0x17, 0xb3, 0xcc, 0xc0,
  0x08, 0x11, 0xab, 0x18, 0xf7, 0xee, 0xd2, 0xb5, 0x35, 0xdd, 0x81, 0x04,
  0xbe, 0x0d, 0xa6, 0xd8, 0x1f, 0xcd, 0xc2, 0xd2, 0xcf, 0xfb, 0xd0, 0xcc,
  0x33, 0xd4, 0xce, 0xe7, 0xe5, 0x1c, 0xbc, 0xe0, 0xf3, 0xfc, 0xff, 0xef,
  0x19, 0x16, 0x05, 0x05, 0x1d, 0x0a, 0xfb, 0xfd, 0x09, 0x52, 0x08, 0xeb,
  0xfd, 0x2f, 0xfe, 0xcb, 0x3d, 0xe2, 0xe8, 0x27, 0x40, 0xfe, 0xfc, 0x37,
  0xfc, 0x4e, 0xed, 0x1b, 0x61, 0x2d, 0x17, 0x32, 0xeb, 0x7f, 0xd7, 0x03,
  0x77, 0xf7, 0xd2, 0x47, 0x19, 0x1f, 0x01, 0x5e, 0x0a, 0xcf, 0xb3, 0x17,
  0x01, 0x3c, 0x9e, 0x3b, 0x51, 0xee, 0xc4, 0x08, 0xe4, 0x0e, 0xe1, 0x1d,
  0x3e, 0xf9, 0x2e, 0x2b, 0x0e, 0x10, 0x30, 0x22, 0x6f, 0x11, 0x08, 0x28,
  0x4d, 0xd7, 0x37, 0x13, 0x39, 0x15, 0x1d, 0x4c, 0xea, 0x38, 0x28, 0x18,
  0x1a, 0x17, 0x28, 0x0d, 0x27, 0x62, 0x0a, 0x01, 0xfe, 0x05, 0x1c, 0x39,
  0x28, 0x41, 0x0d, 0xf4, 0xb8, 0xd8, 0xcd, 0x00, 0xfc, 0xb1, 0xdd, 0xed,
  0xd1, 0xe0, 0xfd, 0xf4, 0x18, 0xc2, 0xa5, 0xd9, 0xe5, 0xe0, 0x0e, 0x04,
  0xf9, 0x85, 0xbe, 0xdc, 0x47, 0xf9, 0x13, 0x1e, 0xfb, 0x88, 0xf6, 0xa1,
  0x5c, 0x1d, 0x40, 0x13, 0x2a, 0xe4, 0xf6, 0xd8, 0x7f, 0x27, 0x0b, 0x0f,
  0x12, 0x32, 0x33, 0xc6, 0x5b, 0xf4, 0xc7, 0xd5, 0xfb, 0x6b, 0xe7, 0xf8,
  0x00, 0x06, 0x13, 0xe0, 0x1d, 0x68, 0xf8, 0xfc, 0xe0, 0x1f, 0x19, 0x18,
  0xe7, 0x4a, 0xec, 0xff, 0xf2, 0x24, 0xf2, 0x0f, 0xeb, 0x14, 0x40, 0xe0,
  0xe2, 0x02, 0xe2, 0xea, 0xb4, 0x64, 0x19, 0xee, 0xdb, 0xae, 0xf9, 0xc0,
  0x07, 0x12, 0x36, 0xd1, 0x02, 0xf3, 0x05, 0xf6, 0xf3, 0xed, 0xf4, 0xd3,
  0x22, 0xee, 0xf7, 0x03, 0xe0, 0xfd, 0xce, 0xaa, 0x2f, 0xdf, 0x8b, 0x00,
  0xcb, 0x2c, 0xad, 0xba, 0x41, 0xe4, 0x81, 0xc2, 0xef, 0x34, 0x88, 0xd0,
  0x36, 0xde, 0x11, 0xe3, 0x16, 0x3d, 0x42, 0xbd, 0x08, 0xf9, 0xd2, 0x20,
  0xfb, 0x38, 0x36, 0x55, 0xbd, 0x18, 0x35, 0x15, 0x3f, 0x14, 0x40, 0x2b,
  0xcc, 0x33, 0x02, 0x31, 0x28, 0xf9, 0x28, 0x4b, 0xed, 0xf6, 0x10, 0x36,
  0xfb, 0xad, 0x39, 0x2d, 0xd9, 0x09, 0x4a, 0x0e, 0xe7, 0xb4, 0x5d, 0x03,
  0x01, 0xca, 0x4a, 0x15, 0x02, 0xa9, 0x2c, 0x23, 0xc4, 0x1f, 0x31, 0x0b,
  0x0d, 0xe3, 0x05, 0x1e, 0x11, 0x02, 0x4c, 0x32, 0x1c, 0x29, 0x48, 0x41,
  0x32, 0x49, 0x30, 0x09, 0x0f, 0x36, 0x31, 0x0d, 0x4b, 0x0e, 0x2c, 0x30,
  0x12, 0x45, 0x34, 0x07, 0x5f, 0x32, 0xdc, 0x2c, 0xf9, 0x50, 0xf2, 0x20,
  0x43, 0x31, 0x34, 0xf3, 0x02, 0x4f, 0xf5, 0xea, 0x24, 0x29, 0x1f, 0x27,
  0x1a, 0x34, 0xd6, 0xef, 0xd4, 0x23, 0x00, 0x1b, 0xe1, 0x2b, 0xcb, 0x13,
  0x1b, 0x36, 0x2b, 0x33, 0x20, 0x1f, 0xe1, 0xdd, 0x2c, 0x2f, 0x08, 0xef,
  0x20, 0x45, 0xef, 0xf6, 0x4f, 0xe7, 0x09, 0x19, 0xd7, 0x2d, 0xc2, 0xe4,
  0x47, 0xf6, 0xfb, 0x1c, 0xfd, 0x7f, 0xd2, 0x14, 0x2d, 0x14, 0x05, 0x02,
  0xfd, 0x5a, 0x01, 0x5a, 0xcc, 0x11, 0x40, 0x18, 0x20, 0xee, 0x62, 0x37,
  0xc3, 0xfa, 0x49, 0x1b, 0x00, 0xb0, 0x35, 0x5b, 0xb7, 0x17, 0x7f, 0x40,
  0xf2, 0xb6, 0x40, 0x50, 0xda, 0x03, 0x1d, 0xe5, 0x1e, 0xa9, 0xe4, 0xd9,
  0xf6, 0xdb, 0x1a, 0x3b, 0x1b, 0xca, 0x1d, 0xf6, 0xe7, 0x0e, 0xf3, 0xe5,
  0x0f, 0xc3, 0x17, 0xd6, 0x32, 0x0e, 0x3c, 0xe7, 0x28, 0xd5, 0x25, 0xc8,
  0x2c, 0xdb, 0xf3, 0xbf, 0xd7, 0xca, 0xed, 0xec, 0xea, 0xe7, 0x0b, 0xe2,
  0xe6, 0xdd, 0x07, 0x99, 0x0e, 0xfc, 0xb7, 0x2c, 0x1e, 0x0b, 0x39, 0x02,
  0xe2, 0x1d, 0x11, 0x39, 0xeb, 0x43, 0x2a, 0x9d, 0xc9, 0xf7, 0xef, 0x13,
  0xcc, 0x08, 0x08, 0xd9, 0x4a, 0x13, 0x30, 0x16, 0xfc, 0x29, 0xde, 0xec,
  0x17, 0xf4, 0xdb, 0x1a, 0xd0, 0x53, 0x99, 0xf9, 0xe8, 0x04, 0xe1, 0x01,
  0xff, 0x24, 0xc6, 0x03, 0x0b, 0xff, 0x0b, 0xef, 0xfa, 0x25, 0xb9, 0xfd,
  0x04, 0xf8, 0x3c, 0x2d, 0x3f, 0xf8, 0xe1, 0x21, 0x01, 0x09, 0x2c, 0x2c,
  0x2f, 0xd8, 0xc8, 0x10, 0xf4, 0x12, 0x25, 0x39, 0x48, 0xf0, 0xd4, 0xf9,
  0x28, 0x37, 0xf9, 0x2e, 0x10, 0x1d, 0xd0, 0xef, 0x4d, 0xf3, 0xb9, 0x23,
  0xf4, 0x39, 0x81, 0x13, 0x1f, 0xcd, 0xe4, 0xf8, 0x0d, 0x23, 0xcc, 0x05,
  0x38, 0x26, 0x2c, 0x31, 0x22, 0x1e, 0x15, 0xa2, 0x4e, 0x2b, 0x3a, 0x44,
  0x12, 0x37, 0xee, 0x03, 0xe0, 0x02, 0x1a, 0xed, 0xfe, 0xe5, 0xf7, 0xf3,
  0xe1, 0x0a, 0x13, 0xe1, 0x04, 0xfa, 0xe0, 0x0b, 0xd9, 0xe3, 0x16, 0x17,
  0x18, 0xd1, 0xf4, 0x31, 0xf2, 0x12, 0xeb, 0xfe, 0x08, 0x03, 0x00, 0xdc,
  0x12, 0x10, 0x8c, 0x09, 0xb7, 0x00, 0xfd, 0xc2, 0x04, 0xcf, 0x8d, 0xfb,
  0x81, 0x17, 0xa7, 0xd6, 0x47, 0xde, 0x00, 0xc8, 0xde, 0x2f, 0x24, 0xad,
  0x09, 0x06, 0x24, 0xeb, 0xe5, 0x39, 0x16, 0x30, 0xd9, 0xf5, 0x21, 0xf8,
  0x31, 0x0a, 0x4d, 0x33, 0x99, 0x15, 0x5a, 0x38, 0x30, 0xdc, 0x35, 0x39,
  0x9d, 0x2d, 0x2d, 0x37, 0x24, 0xbd, 0x0d, 0x4b, 0xa6, 0x00, 0x17, 0x16,
  0x20, 0x8b, 0x19, 0xfc, 0x29, 0xd8, 0xe6, 0x00, 0xec, 0x03, 0xa3, 0xf8,
  0x08, 0xfb, 0x1d, 0xee, 0xf3, 0xf3, 0xff, 0xdc, 0x44, 0x0f, 0x22, 0x09,
  0x02, 0x1a, 0x13, 0xeb, 0x23, 0x0d, 0xda, 0x0e, 0xec, 0x27, 0x1c, 0x07,
  0xf6, 0xee, 0xa7, 0xe9, 0xd4, 0x32, 0xf1, 0x05, 0xd3, 0xc2, 0xd4, 0xd1,
  0xe7, 0xf8, 0xfb, 0xcb, 0xaa, 0xda, 0xbd, 0xe0, 0xdf, 0x12, 0xe4, 0xbe,
  0xcb, 0xdf, 0xf1, 0xe5, 0xc6, 0xd3, 0xbe, 0xee, 0x00, 0xd3, 0x16, 0xca,
  0x02, 0xda, 0xf8, 0xcb, 0x00, 0x08, 0x3e, 0xf4, 0x1e, 0xc4, 0x1d, 0xae,
  0x3c, 0x1c, 0x08, 0x13, 0x09, 0xe1, 0x36, 0xea, 0x10, 0xf2, 0x81, 0xe8,
  0xc9, 0x18, 0xd7, 0x0f, 0x0f, 0xfd, 0x05, 0xe2, 0xf3, 0x0a, 0x12, 0xa8,
  0xfa, 0x04, 0xfc, 0xe5, 0xe0, 0xf4, 0x2d, 0xe4, 0xda, 0xfe, 0xdc, 0xe4,
  0xe3, 0x04, 0x1d, 0xf1, 0x17, 0xf0, 0xf8, 0xe9, 0xdc, 0x05, 0x23, 0xf1,
  0xfa, 0xfd, 0x27, 0xef, 0xdd, 0x24, 0x26, 0x00, 0xc6, 0xf1, 0x48, 0xe6,
  0x0a, 0xe8, 0x19, 0x28, 0xcf, 0x22, 0x3f, 0x06, 0x3b, 0xea, 0x3e, 0x08,
  0x9c, 0x40, 0x37, 0x22, 0x2d, 0xb1, 0x46, 0x07, 0xca, 0x18, 0xdd, 0x11,
  0x2f, 0xa5, 0xf2, 0xeb, 0xf4, 0x0f, 0xe4, 0x08, 0xd4, 0xce, 0xe4, 0xaf,
  0xfa, 0xe5, 0x8f, 0x15, 0xe6, 0xa9, 0x81, 0xae, 0x46, 0xef, 0xcf, 0xe5,
  0xb9, 0xf4, 0xd8, 0xe5, 0xcd, 0xfe, 0xf5, 0x27, 0x02, 0xe5, 0x81, 0x46,
  0x10, 0x05, 0xdd, 0xef, 0xa0, 0x18, 0xc6, 0x07, 0xe4, 0xc9, 0x20, 0x3d,
  0xed, 0x04, 0x89, 0x2a, 0xc7, 0x0f, 0xb2, 0xe4, 0x4c, 0x3a, 0x9e, 0x16,
  0x34, 0xf3, 0xd6, 0xf7, 0xef, 0xce, 0xc4, 0xe5, 0x1b, 0xfe, 0xb7, 0x16,
  0xf7, 0xf1, 0x92, 0xc3, 0x26, 0xed, 0xf3, 0xdd, 0xf2, 0x35, 0xec, 0xc0,
  0x03, 0xf3, 0xd0, 0x21, 0xf0, 0xd5, 0xbf, 0x6b, 0xc0, 0xb9, 0x16, 0x2f,
  0xff, 0x00, 0x8f, 0x3b, 0x07, 0x50, 0x31, 0x40, 0x3f, 0xee, 0x5e, 0x5c,
  0x1a, 0xee, 0x53, 0x25, 0x44, 0x1b, 0xbd, 0x63, 0x09, 0x44, 0x00, 0x19,
  0x6e, 0xcc, 0xee, 0xee, 0x9e, 0xfa, 0xff, 0xff, 0x04, 0x00, 0x00, 0x00,
  0x80, 0x00, 0x00, 0x00, 0x30, 0xfe, 0xff, 0xff, 0x0c, 0x06, 0x00, 0x00,
  0x0c, 0x07, 0x00, 0x00, 0xef, 0x00, 0x00, 0x00, 0x2a, 0xff, 0xff, 0xff,
  0xfc, 0x0a, 0x00, 0x00, 0x9b, 0x09, 0x00, 0x00, 0xbc, 0x00, 0x00, 0x00,
  0x40, 0xfe, 0xff, 0xff, 0x25, 0x09, 0x00, 0x00, 0x0e, 0x06, 0x00, 0x00,
  0x6c, 0x07, 0x00, 0x00, 0x50, 0xfa, 0xff, 0xff, 0xe4, 0x0b, 0x00, 0x00,
  0xb1, 0xfe, 0xff, 0xff, 0xcb, 0xfa, 0xff, 0xff, 0xe7, 0x0c, 0x00, 0x00,
  0xed, 0xfb, 0xff, 0xff, 0xcd, 0xfe, 0xff, 0xff, 0xc6, 0x0e, 0x00, 0x00,
  0x8b, 0x00, 0x00, 0x00, 0x70, 0xfc, 0xff, 0xff, 0xbe, 0x04, 0x00, 0x00,
  0xb3, 0x05, 0x00, 0x00, 0xba, 0xfb, 0xff, 0xff, 0x61, 0x03, 0x00, 0x00,
  0xdf, 0xfa, 0xff, 0xff, 0x39, 0x07, 0x00, 0x00, 0xda, 0xfb, 0xff, 0xff,
  0xbb, 0x08, 0x00, 0x00, 0x9c, 0x01, 0x00, 0x00, 0x78, 0x16, 0x00, 0x00,
  0x2a, 0xfb, 0xff, 0xff, 0x04, 0x00, 0x00, 0x00, 0x00, 0x04, 0x00, 0x00,
  0x53, 0x45, 0xd0, 0x27, 0x2f, 0x9a, 0xc0, 0x61, 0x18, 0xb3, 0xf0, 0xe1,
  0x7f, 0x28, 0x68, 0x50, 0x51, 0x0e, 0x19, 0xdd, 0x57, 0xc7, 0x96, 0x09,
  0x5d, 0x23, 0xad, 0x27, 0xd3, 0x31, 0x40, 0xcc, 0x23, 0x5f, 0x39, 0x0d,
  0xc4, 0xc5, 0xe2, 0x0d, 0x1a, 0x2b, 0x31, 0x1f, 0xd0, 0x54, 0x16, 0xf1,
  0x08, 0xe3, 0xa4, 0xf3, 0x0b, 0xa1, 0x15, 0x23, 0xec, 0xe9, 0xcf, 0x2b,
  0xec, 0x27, 0x81, 0x35, 0x0e, 0x7f, 0x63, 0xbd, 0x2d, 0x31, 0xf4, 0xcc,
  0xf9, 0xdf, 0x4f, 0x3f, 0x00, 0x46, 0xfa, 0x1e, 0x11, 0x19, 0x12, 0x13,
  0xe7, 0x01, 0x3b, 0x28, 0xbf, 0x2c, 0xc8, 0x61, 0xca, 0x58, 0x8a, 0xdb,
  0x28, 0xb3, 0xed, 0x3a, 0xe8, 0x00, 0x2d, 0x23, 0x1b, 0x01, 0x2f, 0x27,
  0x95, 0x12, 0x25, 0xeb, 0x85, 0xf8, 0xb6, 0xc7, 0xfd, 0x29, 0x16, 0x1e,
  0xd4, 0x39, 0x4d, 0xea, 0x4b, 0x28, 0x7f, 0xe4, 0x20, 0xee, 0xcb, 0x59,
  0xcd, 0x0a, 0xdf, 0xeb, 0x2a, 0x1a, 0xd9, 0xed, 0x8e, 0xe6, 0x00, 0x41,
  0xc1, 0x99, 0x12, 0x24, 0x1c, 0x59, 0xea, 0x1c, 0x81, 0x36, 0x4c, 0xba,
  0x2b, 0x3b, 0x35, 0xdf, 0x48, 0x4a, 0xce, 0x01, 0x01, 0x6c, 0x60, 0x11,
  0x16, 0xe0, 0x08, 0xe0, 0x2e, 0x37, 0x1c, 0x81, 0x11, 0x00, 0x05, 0x8e,
  0x46, 0x3a, 0xd9, 0x3c, 0xf9, 0x1b, 0xd3, 0xb9, 0xdd, 0x31, 0xd2, 0xd1,
  0xf1, 0x43, 0xf3, 0x2a, 0xdf, 0xd6, 0xee, 0xe5, 0x39, 0xdd, 0xf5, 0x2c,
  0x16, 0xf5, 0x20, 0xdb, 0xb5, 0xf0, 0xef, 0x12, 0x1c, 0xcf, 0x2c, 0x45,
  0xce, 0x25, 0x1a, 0x38, 0xfb, 0x67, 0x81, 0x52, 0xb3, 0x55, 0x0e, 0xf2,
  0x0f, 0xcd, 0xfd, 0x10, 0x2e, 0xd2, 0xfc, 0x1b, 0xe1, 0xfe, 0xe5, 0xf8,
  0xe5, 0xf0, 0xf4, 0x32, 0x11, 0x0c, 0x12, 0xdf, 0xe4, 0x2a, 0x13, 0xed,
  0x23, 0x2e, 0x81, 0xf8, 0x5a, 0xa0, 0xa8, 0xea, 0x0c, 0xd3, 0x04, 0xfb,
  0x39, 0x01, 0xc9, 0xe8, 0x2e, 0xbc, 0x20, 0xc4, 0x28, 0x68, 0x11, 0x08,
  0x18, 0x7f, 0x30, 0x09, 0x30, 0x32, 0x33, 0x2d, 0x3c, 0xc1, 0x71, 0x27,
  0xf9, 0xee, 0xc6, 0x45, 0x2c, 0x2c, 0x41, 0xcd, 0x0a, 0x1a, 0xd3, 0x2b,
  0x27, 0xfe, 0xca, 0x02, 0x08, 0xa1, 0x9c, 0x13, 0xc1, 0x81, 0x1a, 0x29,
  0xd5, 0x1c, 0xcc, 0x68, 0x8d, 0xc3, 0x39, 0xcd, 0xfb, 0x9c, 0x23, 0xed,
  0xea, 0x14, 0xf5, 0x7f, 0x28, 0x48, 0xd3, 0x00, 0x06, 0xd9, 0xe6, 0xf1,
  0x39, 0x0b, 0x58, 0xdc, 0xe1, 0xff, 0x0c, 0xe2, 0x50, 0xe1, 0x66, 0xcc,
  0xf8, 0x96, 0xf0, 0x54, 0x15, 0x0a, 0xbc, 0x08, 0x94, 0xdf, 0x03, 0x18,
  0xeb, 0xb3, 0xf4, 0x73, 0x10, 0x81, 0xc7, 0x4a, 0xe5, 0x57, 0x60, 0x3a,
  0xfd, 0xf5, 0x26, 0x50, 0x32, 0xb0, 0xd3, 0xf3, 0x70, 0xaf, 0x51, 0xf7,
  0x81, 0x3e, 0x18, 0xdd, 0x05, 0xea, 0x6f, 0xcd, 0xdb, 0x01, 0x26, 0x0f,
  0x3b, 0xad, 0xdc, 0x4f, 0xe7, 0xcb, 0x38, 0x1b, 0xcf, 0xc9, 0x42, 0xd4,
  0xe6, 0x10, 0x18, 0x28, 0x9b, 0x27, 0xe7, 0x3d, 0x0d, 0x18, 0x0c, 0xf4,
  0xb2, 0x09, 0xcf, 0x29, 0x4f, 0x1d, 0xee, 0x6a, 0xe7, 0x9d, 0x0b, 0x2f,
  0x37, 0x3f, 0x7f, 0x22, 0x43, 0x6d, 0xc1, 0xd4, 0x1a, 0xab, 0x03, 0xb8,
  0x60, 0xb2, 0x20, 0x5b, 0x81, 0xea, 0x21, 0xff, 0x05, 0x13, 0xe6, 0x2d,
  0x9b, 0x12, 0xf7, 0x18, 0xfd, 0x20, 0x89, 0xec, 0x16, 0x0d, 0x90, 0x0c,
  0x08, 0xf0, 0xf8, 0xe1, 0xa1, 0x23, 0x19, 0x2e, 0xc7, 0x36, 0x8e, 0x0b,
  0xdf, 0x7f, 0x5d, 0xdc, 0xbc, 0x2c, 0x11, 0x19, 0xce, 0x36, 0x60, 0x47,
  0xeb, 0x72, 0x0c, 0xd3, 0x2b, 0xce, 0x0c, 0x46, 0xc0, 0x0a, 0x2a, 0x69,
  0x92, 0x14, 0xc4, 0x3f, 0x00, 0x79, 0xfc, 0x3c, 0x9f, 0x67, 0x58, 0xd4,
  0xe5, 0x08, 0x62, 0x19, 0xc2, 0xea, 0x23, 0xf0, 0x0d, 0x3c, 0xfa, 0x30,
  0x00, 0xb4, 0xfb, 0x30, 0xca, 0xdb, 0x0e, 0x35, 0xed, 0xc5, 0x17, 0x34,
  0x1b, 0x7f, 0xf3, 0x3e, 0xf1, 0xc2, 0xd4, 0x5b, 0xe8, 0xdf, 0xe4, 0x6e,
  0x17, 0xe4, 0xf9, 0x17, 0x28, 0x9c, 0x51, 0x41, 0x29, 0x1f, 0x2b, 0x05,
  0xec, 0xfd, 0xee, 0x2c, 0x69, 0x60, 0x3f, 0x24, 0x60, 0xea, 0x7f, 0xd7,
  0xd4, 0x7a, 0xd0, 0x42, 0xe3, 0x1f, 0x50, 0x8a, 0xf5, 0x4f, 0x3b, 0x47,
  0x00, 0x7f, 0x1f, 0xd7, 0x51, 0xf2, 0xd9, 0x2f, 0x0f, 0x8c, 0x24, 0x5c,
  0xf9, 0x58, 0x91, 0xdc, 0xea, 0xd5, 0x22, 0x0c, 0xb4, 0x55, 0x22, 0xaf,
  0x2a, 0x7f, 0x6f, 0x35, 0xb3, 0xf7, 0xea, 0xe4, 0x3f, 0x10, 0xd6, 0xbd,
  0x41, 0xb6, 0xe9, 0xaa, 0x33, 0x31, 0x02, 0x22, 0x33, 0x17, 0x02, 0xba,
  0xc0, 0x32, 0xda, 0xac, 0xe8, 0xdb, 0x07, 0x0e, 0xf5, 0xe7, 0x81, 0x40,
  0xdb, 0xe8, 0xee, 0x43, 0x6e, 0xd1, 0xe7, 0x1d, 0xce, 0x46, 0x75, 0x2d,
  0x3e, 0x43, 0x0a, 0xde, 0x0b, 0x27, 0xe0, 0xd4, 0x4f, 0xc2, 0x43, 0x04,
  0xe1, 0x40, 0xd2, 0x21, 0xd8, 0xe4, 0x77, 0x02, 0xcc, 0x3d, 0xcd, 0xcc,
  0x07, 0x59, 0xe1, 0xc1, 0xed, 0xae, 0x1a, 0x2b, 0x81, 0xd6, 0x05, 0x41,
  0xe1, 0x2e, 0xbf, 0x5f, 0xaa, 0xbd, 0x1b, 0x3e, 0xf2, 0xb6, 0xd0, 0x10,
  0x2b, 0x0a, 0xeb, 0x35, 0x25, 0x0b, 0x0d, 0x06, 0xe5, 0x81, 0x3e, 0xe8,
  0x30, 0x48, 0x46, 0xe9, 0x48, 0xec, 0xd7, 0xb4, 0x3b, 0xf2, 0x18, 0xff,
  0x43, 0xb1, 0xf6, 0x1e, 0x3e, 0x30, 0x0e, 0xe6, 0xfe, 0x37, 0x4e, 0xfe,
  0xf3, 0xfd, 0x20, 0xd2, 0xdb, 0x7f, 0xf2, 0xe2, 0x42, 0xe9, 0xf5, 0xd2,
  0x20, 0x0b, 0xef, 0x3f, 0xfd, 0xce, 0xf2, 0x09, 0x12, 0x65, 0x0b, 0x02,
  0x3d, 0x17, 0x0e, 0xb5, 0x3c, 0x6a, 0x7c, 0x3f, 0xce, 0xb2, 0x46, 0x50,
  0xfa, 0x7f, 0x0a, 0x02, 0x56, 0x1f, 0xa8, 0x66, 0xfd, 0xbc, 0xb9, 0xce,
  0xf8, 0x3b, 0x2b, 0xe3, 0x0c, 0xeb, 0xec, 0xe8, 0xd2, 0x86, 0xcb, 0x52,
  0xb6, 0xe6, 0x90, 0x3e, 0x51, 0x0a, 0x8e, 0x4e, 0x04, 0xbb, 0x60, 0x52,
  0x38, 0x2f, 0x79, 0xf5, 0x42, 0x75, 0xbc, 0x0b, 0x3b, 0xc0, 0x3e, 0xab,
  0x56, 0x0a, 0x7f, 0x71, 0x2a, 0x0c, 0x03, 0x73, 0xdc, 0xce, 0xa7, 0x5a,
  0x35, 0x94, 0xcb, 0x57, 0x02, 0x97, 0x7e, 0x4a, 0xfa, 0xc9, 0x58, 0x40,
  0x0e, 0x72, 0x81, 0xd2, 0xe1, 0xf9, 0x56, 0xf8, 0x28, 0x54, 0x16, 0xb6,
  0x34, 0x31, 0xea, 0xf4, 0x00, 0x44, 0xe1, 0x0c, 0xfd, 0x92, 0xfb, 0xdc,
  0xe6, 0x43, 0x28, 0xee, 0x78, 0x00, 0xb8, 0xcb, 0x48, 0x14, 0x1a, 0xd2,
  0xda, 0xd4, 0x44, 0x81, 0x0e, 0x22, 0xa2, 0xb5, 0xd9, 0xd8, 0x06, 0x41,
  0xdc, 0xe1, 0x9e, 0x19, 0x5a, 0x3a, 0xb6, 0xde, 0xe5, 0x0b, 0x0b, 0x02,
  0xc6, 0xa9, 0x63, 0xdc, 0x19, 0x7f, 0xcc, 0xcb, 0xc5, 0x5d, 0x53, 0x41,
  0x3b, 0xde, 0x53, 0xcf, 0xd5, 0xc5, 0xde, 0x51, 0xb5, 0xf9, 0x24, 0x43,
  0x2d, 0xe7, 0xb9, 0x54, 0x36, 0xae, 0x22, 0x60, 0x50, 0x7f, 0x44, 0xfd,
  0x64, 0x32, 0xfd, 0xc9, 0x1d, 0xb9, 0xf9, 0xd2, 0x4f, 0xaf, 0x10, 0x42,
  0xeb, 0xcf, 0xe4, 0x05, 0x39, 0xfd, 0xc9, 0xff, 0xcc, 0x57, 0xca, 0xc1,
  0x34, 0xc2, 0x53, 0x35, 0x0b, 0x7f, 0xf8, 0xf7, 0x29, 0xc2, 0x51, 0x17,
  0x7e, 0x3b, 0xcf, 0xa4, 0x6d, 0xec, 0x2f, 0xf3, 0xc6, 0x40, 0x1a, 0xc7,
  0x51, 0x55, 0x47, 0x2a, 0xd1, 0x21, 0x57, 0xdf, 0x3d, 0x7f, 0x3c, 0x16,
  0x1c, 0xda, 0xb0, 0x40, 0x42, 0xcc, 0xc8, 0x51, 0x29, 0xf1, 0xc9, 0x34,
  0x36, 0x50, 0x9e, 0xfb, 0x36, 0xff, 0xff, 0xff, 0x04, 0x00, 0x00, 0x00,
  0x80, 0x00, 0x00, 0x00, 0x4f, 0x00, 0x00, 0x00, 0xef, 0x0a, 0x00, 0x00,
  0xec, 0x03, 0x00, 0x00, 0xa4, 0xff, 0xff, 0xff, 0xd9, 0x00, 0x00, 0x00,
  0x6c, 0x02, 0x00, 0x00, 0xd6, 0x05, 0x00, 0x00, 0x2b, 0x04, 0x00, 0x00,
  0x7c, 0xfc, 0xff, 0xff, 0x39, 0x06, 0x00, 0x00, 0x6f, 0xfe, 0xff, 0xff,
  0x1c, 0x00, 0x00, 0x00, 0x7c, 0x04, 0x00, 0x00, 0x53, 0xff, 0xff, 0xff,
  0x9c, 0x06, 0x00, 0x00, 0x33, 0x05, 0x00, 0x00, 0xc5, 0x07, 0x00, 0x00,
  0x3c, 0xfc, 0xff, 0xff, 0xc3, 0x04, 0x00, 0x00, 0x1a, 0x04, 0x00, 0x00,
  0xec, 0xfd, 0xff, 0xff, 0xa5, 0x04, 0x00, 0x00, 0xa5, 0xfe, 0xff, 0xff,
  0x8b, 0x03, 0x00, 0x00, 0xe2, 0x04, 0x00, 0x00, 0xf2, 0x01, 0x00, 0x00,
  0xde, 0x00, 0x00, 0x00, 0x96, 0x01, 0x00, 0x00, 0x32, 0xff, 0xff, 0xff,
  0xad, 0xff, 0xff, 0xff, 0xcc, 0xfd, 0xff, 0xff, 0x2b, 0x05, 0x00, 0x00,
  0xc2, 0xff, 0xff, 0xff, 0x04, 0x00, 0x00, 0x00, 0x20, 0x00, 0x00, 0x00,
  0x28, 0xca, 0xd7, 0x21, 0x3e, 0xcb, 0xe9, 0xe2, 0x23, 0xe2, 0x2a, 0x2e,
  0xe2, 0x30, 0xcd, 0xdc, 0xea, 0x16, 0xe7, 0xb9, 0x13, 0xd7, 0x1e, 0x81,
  0xfd, 0x36, 0x33, 0xcc, 0x36, 0x1e, 0x1d, 0xe7, 0xee, 0xff, 0xff, 0xff,
  0x04, 0x00, 0x00, 0x00, 0x04, 0x00, 0x00, 0x00, 0x9a, 0xfe, 0xff, 0xff,
  0x00, 0x00, 0x06, 0x00, 0x08, 0x00, 0x04, 0x00, 0x06, 0x00, 0x00, 0x00,
  0x04, 0x00, 0x00, 0x00, 0x08, 0x00, 0x00, 0x00, 0xff, 0xff, 0xff, 0xff,
  0x60, 0x00, 0x00, 0x00, 0xc4, 0xe4, 0xff, 0xff, 0xc8, 0xe4, 0xff, 0xff,
  0x0f, 0x00, 0x00, 0x00, 0x4d, 0x4c, 0x49, 0x52, 0x20, 0x43, 0x6f, 0x6e,
  0x76, 0x65, 0x72, 0x74, 0x65, 0x64, 0x2e, 0x00, 0x01, 0x00, 0x00, 0x00,
  0x14, 0x00, 0x00, 0x00, 0x00, 0x00, 0x0e, 0x00, 0x18, 0x00, 0x14, 0x00,
  0x10, 0x00, 0x0c, 0x00, 0x08, 0x00, 0x04, 0x00, 0x0e, 0x00, 0x00, 0x00,
  0x14, 0x00, 0x00, 0x00, 0x1c, 0x00, 0x00, 0x00, 0xc8, 0x03, 0x00, 0x00,
  0xcc, 0x03, 0x00, 0x00, 0xd0, 0x03, 0x00, 0x00, 0x04, 0x00, 0x00, 0x00,
  0x6d, 0x61, 0x69, 0x6e, 0x00, 0x00, 0x00, 0x00, 0x0f, 0x00, 0x00, 0x00,
  0x90, 0x03, 0x00, 0x00, 0x34, 0x03, 0x00, 0x00, 0xd0, 0x02, 0x00, 0x00,
  0x8c, 0x02, 0x00, 0x00, 0x48, 0x02, 0x00, 0x00, 0x04, 0x02, 0x00, 0x00,
  0xc0, 0x01, 0x00, 0x00, 0x7c, 0x01, 0x00, 0x00, 0x38, 0x01, 0x00, 0x00,
  0x10, 0x01, 0x00, 0x00, 0xc0, 0x00, 0x00, 0x00, 0x84, 0x00, 0x00, 0x00,
  0x4c, 0x00, 0x00, 0x00, 0x28, 0x00, 0x00, 0x00, 0x04, 0x00, 0x00, 0x00,
  0x12, 0xff, 0xff, 0xff, 0x0c, 0x00, 0x00, 0x00, 0x10, 0x00, 0x00, 0x00,
  0x06, 0x00, 0x00, 0x00, 0x01, 0x00, 0x00, 0x00, 0x1e, 0x00, 0x00, 0x00,
  0x01, 0x00, 0x00, 0x00, 0x1d, 0x00, 0x00, 0x00, 0x32, 0xff, 0xff, 0xff,
  0x0c, 0x00, 0x00, 0x00, 0x10, 0x00, 0x00, 0x00, 0x05, 0x00, 0x00, 0x00,
  0x01, 0x00, 0x00, 0x00, 0x1d, 0x00, 0x00, 0x00, 0x01, 0x00, 0x00, 0x00,
  0x1c, 0x00, 0x00, 0x00, 0x52, 0xfd, 0xff, 0xff, 0x14, 0x00, 0x00, 0x00,
  0x00, 0x00, 0x00, 0x08, 0x10, 0x00, 0x00, 0x00, 0x14, 0x00, 0x00, 0x00,
  0x04, 0x00, 0x00, 0x00, 0xb4, 0xe5, 0xff, 0xff, 0x01, 0x00, 0x00, 0x00,
  0x1c, 0x00, 0x00, 0x00, 0x03, 0x00, 0x00, 0x00, 0x1b, 0x00, 0x00, 0x00,
  0x03, 0x00, 0x00, 0x00, 0x02, 0x00, 0x00, 0x00, 0x86, 0xfd, 0xff, 0xff,
  0x14, 0x00, 0x00, 0x00, 0x00, 0x00, 0x00, 0x08, 0x14, 0x00, 0x00, 0x00,
  0x18, 0x00, 0x00, 0x00, 0x04, 0x00, 0x00, 0x00, 0xc6, 0xff, 0xff, 0xff,
  0x00, 0x00, 0x00, 0x01, 0x01, 0x00, 0x00, 0x00, 0x1b, 0x00, 0x00, 0x00,
  0x03, 0x00, 0x00, 0x00, 0x1a, 0x00, 0x00, 0x00, 0x05, 0x00, 0x00, 0x00,
  0x04, 0x00, 0x00, 0x00, 0xbe, 0xfd, 0xff, 0xff, 0x1c, 0x00, 0x00, 0x00,
  0x00, 0x00, 0x00, 0x08, 0x1c, 0x00, 0x00, 0x00, 0x20, 0x00, 0x00, 0x00,
  0x04, 0x00, 0x00, 0x00, 0x00, 0x00, 0x06, 0x00, 0x08, 0x00, 0x07, 0x00,
  0x06, 0x00, 0x00, 0x00, 0x00, 0x00, 0x00, 0x01, 0x01, 0x00, 0x00, 0x00,
  0x1a, 0x00, 0x00, 0x00, 0x03, 0x00, 0x00, 0x00, 0x19, 0x00, 0x00, 0x00,
  0x07, 0x00, 0x00, 0x00, 0x06, 0x00, 0x00, 0x00, 0x00, 0x00, 0x0a, 0x00,
  0x10, 0x00, 0x0c, 0x00, 0x08, 0x00, 0x04, 0x00, 0x0a, 0x00, 0x00, 0x00,
  0x0c, 0x00, 0x00, 0x00, 0x10, 0x00, 0x00, 0x00, 0x03, 0x00, 0x00, 0x00,
  0x01, 0x00, 0x00, 0x00, 0x19, 0x00, 0x00, 0x00, 0x02, 0x00, 0x00, 0x00,
  0x18, 0x00, 0x00, 0x00, 0x01, 0x00, 0x00, 0x00, 0x2e, 0xfe, 0xff, 0xff,
  0x14, 0x00, 0x00, 0x00, 0x00, 0x00, 0x00, 0x05, 0x24, 0x00, 0x00, 0x00,
  0x28, 0x00, 0x00, 0x00, 0x02, 0x00, 0x00, 0x00, 0x7e, 0xfe, 0xff, 0xff,
  0x02, 0x00, 0x00, 0x00, 0x02, 0x00, 0x00, 0x00, 0x02, 0x00, 0x00, 0x00,
  0x02, 0x00, 0x00, 0x00, 0x00, 0x00, 0x00, 0x01, 0x01, 0x00, 0x00, 0x00,
  0x18, 0x00, 0x00, 0x00, 0x01, 0x00, 0x00, 0x00, 0x17, 0x00, 0x00, 0x00,
  0x6e, 0xfe, 0xff, 0xff, 0x14, 0x00, 0x00, 0x00, 0x00, 0x00, 0x00, 0x01,
  0x1c, 0x00, 0x00, 0x00, 0x20, 0x00, 0x00, 0x00, 0x01, 0x00, 0x00, 0x00,
  0x60, 0xfe, 0xff, 0xff, 0x00, 0x00, 0x00, 0x01, 0x01, 0x00, 0x00, 0x00,
  0x01, 0x00, 0x00, 0x00, 0x01, 0x00, 0x00, 0x00, 0x17, 0x00, 0x00, 0x00,
  0x03, 0x00, 0x00, 0x00, 0x16, 0x00, 0x00, 0x00, 0x09, 0x00, 0x00, 0x00,
  0x08, 0x00, 0x00, 0x00, 0xae, 0xfe, 0xff, 0xff, 0x14, 0x00, 0x00, 0x00,
  0x00, 0x00, 0x00, 0x05, 0x24, 0x00, 0x00, 0x00, 0x28, 0x00, 0x00, 0x00,
  0x02, 0x00, 0x00, 0x00, 0xfe, 0xfe, 0xff, 0xff, 0x02, 0x00, 0x00, 0x00,
  0x02, 0x00, 0x00, 0x00, 0x02, 0x00, 0x00, 0x00, 0x02, 0x00, 0x00, 0x00,
  0x00, 0x00, 0x00, 0x01, 0x01, 0x00, 0x00, 0x00, 0x16, 0x00, 0x00, 0x00,
  0x01, 0x00, 0x00, 0x00, 0x15, 0x00, 0x00, 0x00, 0xee, 0xfe, 0xff, 0xff,
  0x14, 0x00, 0x00, 0x00, 0x00, 0x00, 0x00, 0x01, 0x1c, 0x00, 0x00, 0x00,
  0x20, 0x00, 0x00, 0x00, 0x01, 0x00, 0x00, 0x00, 0xe0, 0xfe, 0xff, 0xff,
  0x00, 0x00, 0x00, 0x01, 0x01, 0x00, 0x00, 0x00, 0x01, 0x00, 0x00, 0x00,
  0x01, 0x00, 0x00, 0x00, 0x15, 0x00, 0x00, 0x00, 0x03, 0x00, 0x00, 0x00,
  0x14, 0x00, 0x00, 0x00, 0x0b, 0x00, 0x00, 0x00, 0x0a, 0x00, 0x00, 0x00,
  0x2e, 0xff, 0xff, 0xff, 0x14, 0x00, 0x00, 0x00, 0x00, 0x00, 0x00, 0x05,
  0x24, 0x00, 0x00, 0x00, 0x28, 0x00, 0x00, 0x00, 0x02, 0x00, 0x00, 0x00,
  0x7e, 0xff, 0xff, 0xff, 0x02, 0x00, 0x00, 0x00, 0x02, 0x00, 0x00, 0x00,
  0x02, 0x00, 0x00, 0x00, 0x02, 0x00, 0x00, 0x00, 0x00, 0x00, 0x00, 0x01,
  0x01, 0x00, 0x00, 0x00, 0x14, 0x00, 0x00, 0x00, 0x01, 0x00, 0x00, 0x00,
  0x13, 0x00, 0x00, 0x00, 0x6e, 0xff, 0xff, 0xff, 0x14, 0x00, 0x00, 0x00,
  0x00, 0x00, 0x00, 0x01, 0x1c, 0x00, 0x00, 0x00, 0x20, 0x00, 0x00, 0x00,
  0x01, 0x00, 0x00, 0x00, 0x60, 0xff, 0xff, 0xff, 0x00, 0x00, 0x00, 0x01,
  0x01, 0x00, 0x00, 0x00, 0x01, 0x00, 0x00, 0x00, 0x01, 0x00, 0x00, 0x00,
  0x13, 0x00, 0x00, 0x00, 0x03, 0x00, 0x00, 0x00, 0x12, 0x00, 0x00, 0x00,
  0x0d, 0x00, 0x00, 0x00, 0x0c, 0x00, 0x00, 0x00, 0xae, 0xff, 0xff, 0xff,
  0x24, 0x00, 0x00, 0x00, 0x00, 0x00, 0x00, 0x05, 0x34, 0x00, 0x00, 0x00,
  0x38, 0x00, 0x00, 0x00, 0x02, 0x00, 0x00, 0x00, 0x00, 0x00, 0x0e, 0x00,
  0x18, 0x00, 0x17, 0x00, 0x10, 0x00, 0x0c, 0x00, 0x08, 0x00, 0x04, 0x00,
  0x0e, 0x00, 0x00, 0x00, 0x02, 0x00, 0x00, 0x00, 0x02, 0x00, 0x00, 0x00,
  0x02, 0x00, 0x00, 0x00, 0x02, 0x00, 0x00, 0x00, 0x00, 0x00, 0x00, 0x01,
  0x01, 0x00, 0x00, 0x00, 0x12, 0x00, 0x00, 0x00, 0x01, 0x00, 0x00, 0x00,
  0x11, 0x00, 0x00, 0x00, 0x00, 0x00, 0x0e, 0x00, 0x18, 0x00, 0x14, 0x00,
  0x10, 0x00, 0x0c, 0x00, 0x0b, 0x00, 0x04, 0x00, 0x0e, 0x00, 0x00, 0x00,
  0x20, 0x00, 0x00, 0x00, 0x00, 0x00, 0x00, 0x01, 0x28, 0x00, 0x00, 0x00,
  0x2c, 0x00, 0x00, 0x00, 0x01, 0x00, 0x00, 0x00, 0x0c, 0x00, 0x10, 0x00,
  0x00, 0x00, 0x0c, 0x00, 0x08, 0x00, 0x07, 0x00, 0x0c, 0x00, 0x00, 0x00,
  0x00, 0x00, 0x00, 0x01, 0x01, 0x00, 0x00, 0x00, 0x01, 0x00, 0x00, 0x00,
  0x01, 0x00, 0x00, 0x00, 0x11, 0x00, 0x00, 0x00, 0x03, 0x00, 0x00, 0x00,
  0x10, 0x00, 0x00, 0x00, 0x0f, 0x00, 0x00, 0x00, 0x0e, 0x00, 0x00, 0x00,
  0x00, 0x00, 0x0a, 0x00, 0x0c, 0x00, 0x00, 0x00, 0x08, 0x00, 0x04, 0x00,
  0x0a, 0x00, 0x00, 0x00, 0x08, 0x00, 0x00, 0x00, 0x0c, 0x00, 0x00, 0x00,
  0x01, 0x00, 0x00, 0x00, 0x10, 0x00, 0x00, 0x00, 0x01, 0x00, 0x00, 0x00,
  0x00, 0x00, 0x00, 0x00, 0x01, 0x00, 0x00, 0x00, 0x1e, 0x00, 0x00, 0x00,
  0x01, 0x00, 0x00, 0x00, 0x00, 0x00, 0x00, 0x00, 0x1f, 0x00, 0x00, 0x00,
  0xf0, 0x16, 0x00, 0x00, 0x98, 0x16, 0x00, 0x00, 0x10, 0x16, 0x00, 0x00,
  0xa8, 0x15, 0x00, 0x00, 0xd4, 0x13, 0x00, 0x00, 0xf8, 0x11, 0x00, 0x00,
  0x24, 0x10, 0x00, 0x00, 0x48, 0x0e, 0x00, 0x00, 0xc4, 0x0d, 0x00, 0x00,
  0x30, 0x0d, 0x00, 0x00, 0xac, 0x0c, 0x00, 0x00, 0x18, 0x0c, 0x00, 0x00,
  0x94, 0x0b, 0x00, 0x00, 0x00, 0x0b, 0x00, 0x00, 0x7c, 0x0a, 0x00, 0x00,
  0xe8, 0x09, 0x00, 0x00, 0x64, 0x09, 0x00, 0x00, 0x80, 0x08, 0x00, 0x00,
  0xe4, 0x07, 0x00, 0x00, 0xf0, 0x06, 0x00, 0x00, 0x54, 0x06, 0x00, 0x00,
  0x80, 0x05, 0x00, 0x00, 0xe4, 0x04, 0x00, 0x00, 0x10, 0x04, 0x00, 0x00,
  0x74, 0x03, 0x00, 0x00, 0xf0, 0x02, 0x00, 0x00, 0x3c, 0x02, 0x00, 0x00,
  0x80, 0x01, 0x00, 0x00, 0xe4, 0x00, 0x00, 0x00, 0x60, 0x00, 0x00, 0x00,
  0x04, 0x00, 0x00, 0x00, 0xa2, 0xe9, 0xff, 0xff, 0x00, 0x00, 0x00, 0x01,
  0x14, 0x00, 0x00, 0x00, 0x1c, 0x00, 0x00, 0x00, 0x1c, 0x00, 0x00, 0x00,
  0x1f, 0x00, 0x00, 0x00, 0x34, 0x00, 0x00, 0x00, 0x02, 0x00, 0x00, 0x00,
  0xff, 0xff, 0xff, 0xff, 0x01, 0x00, 0x00, 0x00, 0x84, 0xe9, 0xff, 0xff,
  0x1b, 0x00, 0x00, 0x00, 0x53, 0x74, 0x61, 0x74, 0x65, 0x66, 0x75, 0x6c,
  0x50, 0x61, 0x72, 0x74, 0x69, 0x74, 0x69, 0x6f, 0x6e, 0x65, 0x64, 0x43,
  0x61, 0x6c, 0x6c, 0x5f, 0x31, 0x3a, 0x30, 0x00, 0x02, 0x00, 0x00, 0x00,
  0x01, 0x00, 0x00, 0x00, 0x01, 0x00, 0x00, 0x00, 0x46, 0xf7, 0xff, 0xff,
  0x00, 0x00, 0x00, 0x01, 0x18, 0x00, 0x00, 0x00, 0x20, 0x00, 0x00, 0x00,
  0x40, 0x00, 0x00, 0x00, 0x1e, 0x00, 0x00, 0x00, 0x00, 0x00, 0x00, 0x09,
  0x58, 0x00, 0x00, 0x00, 0x02, 0x00, 0x00, 0x00, 0xff, 0xff, 0xff, 0xff,
  0x01, 0x00, 0x00, 0x00, 0xcc, 0xea, 0xff, 0xff, 0x08, 0x00, 0x00, 0x00,
  0x14, 0x00, 0x00, 0x00, 0x01, 0x00, 0x00, 0x00, 0x80, 0xff, 0xff, 0xff,
  0xff, 0xff, 0xff, 0xff, 0x00, 0x00, 0x00, 0x00, 0x01, 0x00, 0x00, 0x00,
  0x00, 0x00, 0x80, 0x3b, 0x1c, 0x00, 0x00, 0x00, 0x53, 0x74, 0x61, 0x74,
  0x65, 0x66, 0x75, 0x6c, 0x50, 0x61, 0x72, 0x74, 0x69, 0x74, 0x69, 0x6f,
  0x6e, 0x65, 0x64, 0x43, 0x61, 0x6c, 0x6c, 0x5f, 0x31, 0x3a, 0x30, 0x31,
  0x00, 0x00, 0x00, 0x00, 0x02, 0x00, 0x00, 0x00, 0x01, 0x00, 0x00, 0x00,
  0x01, 0x00, 0x00, 0x00, 0xc6, 0xf7, 0xff, 0xff, 0x00, 0x00, 0x00, 0x01,
  0x18, 0x00, 0x00, 0x00, 0x20, 0x00, 0x00, 0x00, 0x3c, 0x00, 0x00, 0x00,
  0x1d, 0x00, 0x00, 0x00, 0x00, 0x00, 0x00, 0x09, 0x70, 0x00, 0x00, 0x00,
  0x02, 0x00, 0x00, 0x00, 0xff, 0xff, 0xff, 0xff, 0x01, 0x00, 0x00, 0x00,
  0x4c, 0xeb, 0xff, 0xff, 0x08, 0x00, 0x00, 0x00, 0x10, 0x00, 0x00, 0x00,
  0x01, 0x00, 0x00, 0x00, 0xfe, 0xff, 0xff, 0xff, 0xff, 0xff, 0xff, 0xff,
  0x01, 0x00, 0x00, 0x00, 0xf3, 0x74, 0x06, 0x3e, 0x38, 0x00, 0x00, 0x00,
  0x73, 0x65, 0x71, 0x75, 0x65, 0x6e, 0x74, 0x69, 0x61, 0x6c, 0x5f, 0x31,
  0x2f, 0x64, 0x65, 0x6e, 0x73, 0x65, 0x5f, 0x32, 0x5f, 0x31, 0x2f, 0x4d,
  0x61, 0x74, 0x4d, 0x75, 0x6c, 0x3b, 0x73, 0x65, 0x71, 0x75, 0x65, 0x6e,
  0x74, 0x69, 0x61, 0x6c, 0x5f, 0x31, 0x2f, 0x64, 0x65, 0x6e, 0x73, 0x65,
  0x5f, 0x32, 0x5f, 0x31, 0x2f, 0x41, 0x64, 0x64, 0x00, 0x00, 0x00, 0x00,
  0x02, 0x00, 0x00, 0x00, 0x01, 0x00, 0x00, 0x00, 0x01, 0x00, 0x00, 0x00,
  0x5e, 0xf8, 0xff, 0xff, 0x00, 0x00, 0x00, 0x01, 0x18, 0x00, 0x00, 0x00,
  0x20, 0x00, 0x00, 0x00, 0x40, 0x00, 0x00, 0x00, 0x1c, 0x00, 0x00, 0x00,
  0x00, 0x00, 0x00, 0x09, 0x90, 0x00, 0x00, 0x00, 0x02, 0x00, 0x00, 0x00,
  0xff, 0xff, 0xff, 0xff, 0x20, 0x00, 0x00, 0x00, 0xe4, 0xeb, 0xff, 0xff,
  0x08, 0x00, 0x00, 0x00, 0x14, 0x00, 0x00, 0x00, 0x01, 0x00, 0x00, 0x00,
  0x80, 0xff, 0xff, 0xff, 0xff, 0xff, 0xff, 0xff, 0x00, 0x00, 0x00, 0x00,
  0x01, 0x00, 0x00, 0x00, 0x25, 0xcc, 0x18, 0x3d, 0x54, 0x00, 0x00, 0x00,
  0x73, 0x65, 0x71, 0x75, 0x65, 0x6e, 0x74, 0x69, 0x61, 0x6c, 0x5f, 0x31,
  0x2f, 0x64, 0x65, 0x6e, 0x73, 0x65, 0x5f, 0x31, 0x5f, 0x32, 0x2f, 0x4d,
  0x61, 0x74, 0x4d, 0x75, 0x6c, 0x3b, 0x73, 0x65, 0x71, 0x75, 0x65, 0x6e,
  0x74, 0x69, 0x61, 0x6c, 0x5f, 0x31, 0x2f, 0x64, 0x65, 0x6e, 0x73, 0x65,
  0x5f, 0x31, 0x5f, 0x32, 0x2f, 0x52, 0x65, 0x6c, 0x75, 0x3b, 0x73, 0x65,
  0x71, 0x75, 0x65, 0x6e, 0x74, 0x69, 0x61, 0x6c, 0x5f, 0x31, 0x2f, 0x64,
  0x65, 0x6e, 0x73, 0x65, 0x5f, 0x31, 0x5f, 0x32, 0x2f, 0x41, 0x64, 0x64,
  0x00, 0x00, 0x00, 0x00, 0x02, 0x00, 0x00, 0x00, 0x01, 0x00, 0x00, 0x00,
  0x20, 0x00, 0x00, 0x00, 0x16, 0xf9, 0xff, 0xff, 0x00, 0x00, 0x00, 0x01,
  0x18, 0x00, 0x00, 0x00, 0x20, 0x00, 0x00, 0x00, 0x40, 0x00, 0x00, 0x00,
  0x1b, 0x00, 0x00, 0x00, 0x00, 0x00, 0x00, 0x09, 0x88, 0x00, 0x00, 0x00,
  0x02, 0x00, 0x00, 0x00, 0xff, 0xff, 0xff, 0xff, 0x20, 0x00, 0x00, 0x00,
  0x9c, 0xec, 0xff, 0xff, 0x08, 0x00, 0x00, 0x00, 0x14, 0x00, 0x00, 0x00,
  0x01, 0x00, 0x00, 0x00, 0x80, 0xff, 0xff, 0xff, 0xff, 0xff, 0xff, 0xff,
  0x00, 0x00, 0x00, 0x00, 0x01, 0x00, 0x00, 0x00, 0xcd, 0x45, 0x22, 0x3d,
  0x4e, 0x00, 0x00, 0x00, 0x73, 0x65, 0x71, 0x75, 0x65, 0x6e, 0x74, 0x69,
  0x61, 0x6c, 0x5f, 0x31, 0x2f, 0x64, 0x65, 0x6e, 0x73, 0x65, 0x5f, 0x31,
  0x2f, 0x4d, 0x61, 0x74, 0x4d, 0x75, 0x6c, 0x3b, 0x73, 0x65, 0x71, 0x75,
  0x65, 0x6e, 0x74, 0x69, 0x61, 0x6c, 0x5f, 0x31, 0x2f, 0x64, 0x65, 0x6e,
  0x73, 0x65, 0x5f, 0x31, 0x2f, 0x52, 0x65, 0x6c, 0x75, 0x3b, 0x73, 0x65,
  0x71, 0x75, 0x65, 0x6e, 0x74, 0x69, 0x61, 0x6c, 0x5f, 0x31, 0x2f, 0x64,
  0x65, 0x6e, 0x73, 0x65, 0x5f, 0x31, 0x2f, 0x41, 0x64, 0x64, 0x00, 0x00,
  0x02, 0x00, 0x00, 0x00, 0x01, 0x00, 0x00, 0x00, 0x20, 0x00, 0x00, 0x00,
  0xc6, 0xf9, 0xff, 0xff, 0x00, 0x00, 0x00, 0x01, 0x18, 0x00, 0x00, 0x00,
  0x20, 0x00, 0x00, 0x00, 0x40, 0x00, 0x00, 0x00, 0x1a, 0x00, 0x00, 0x00,
  0x00, 0x00, 0x00, 0x09, 0x58, 0x00, 0x00, 0x00, 0x02, 0x00, 0x00, 0x00,
  0xff, 0xff, 0xff, 0xff, 0x60, 0x00, 0x00, 0x00, 0x4c, 0xed, 0xff, 0xff,
  0x08, 0x00, 0x00, 0x00, 0x14, 0x00, 0x00, 0x00, 0x01, 0x00, 0x00, 0x00,
  0x80, 0xff, 0xff, 0xff, 0xff, 0xff, 0xff, 0xff, 0x00, 0x00, 0x00, 0x00,
  0x01, 0x00, 0x00, 0x00, 0x6c, 0xa3, 0x9c, 0x3c, 0x1e, 0x00, 0x00, 0x00,
  0x73, 0x65, 0x71, 0x75, 0x65, 0x6e, 0x74, 0x69, 0x61, 0x6c, 0x5f, 0x31,
  0x2f, 0x66, 0x6c, 0x61, 0x74, 0x74, 0x65, 0x6e, 0x5f, 0x31, 0x2f, 0x52,
  0x65, 0x73, 0x68, 0x61, 0x70, 0x65, 0x00, 0x00, 0x02, 0x00, 0x00, 0x00,
  0x01, 0x00, 0x00, 0x00, 0x60, 0x00, 0x00, 0x00, 0x46, 0xfa, 0xff, 0xff,
  0x00, 0x00, 0x00, 0x01, 0x18, 0x00, 0x00, 0x00, 0x28, 0x00, 0x00, 0x00,
  0x44, 0x00, 0x00, 0x00, 0x19, 0x00, 0x00, 0x00, 0x00, 0x00, 0x00, 0x09,
  0x68, 0x00, 0x00, 0x00, 0x04, 0x00, 0x00, 0x00, 0xff, 0xff, 0xff, 0xff,
  0x0c, 0x00, 0x00, 0x00, 0x02, 0x00, 0x00, 0x00, 0x04, 0x00, 0x00, 0x00,
  0xd4, 0xed, 0xff, 0xff, 0x08, 0x00, 0x00, 0x00, 0x10, 0x00, 0x00, 0x00,
  0x01, 0x00, 0x00, 0x00, 0x80, 0xff, 0xff, 0xff, 0xff, 0xff, 0xff, 0xff,
  0x01, 0x00, 0x00, 0x00, 0x6c, 0xa3, 0x9c, 0x3c, 0x28, 0x00, 0x00, 0x00,
  0x73, 0x65, 0x71, 0x75, 0x65, 0x6e, 0x74, 0x69, 0x61, 0x6c, 0x5f, 0x31,
  0x2f, 0x6d, 0x61, 0x78, 0x5f, 0x70, 0x6f, 0x6f, 0x6c, 0x69, 0x6e, 0x67,
  0x32, 0x64, 0x5f, 0x33, 0x5f, 0x31, 0x2f, 0x4d, 0x61, 0x78, 0x50, 0x6f,
  0x6f, 0x6c, 0x32, 0x64, 0x00, 0x00, 0x00, 0x00, 0x04, 0x00, 0x00, 0x00,
  0x01, 0x00, 0x00, 0x00, 0x0c, 0x00, 0x00, 0x00, 0x02, 0x00, 0x00, 0x00,
  0x04, 0x00, 0x00, 0x00, 0xde, 0xfa, 0xff, 0xff, 0x00, 0x00, 0x00, 0x01,
  0x18, 0x00, 0x00, 0x00, 0x28, 0x00, 0x00, 0x00, 0x48, 0x00, 0x00, 0x00,
  0x18, 0x00, 0x00, 0x00, 0x00, 0x00, 0x00, 0x09, 0xa0, 0x00, 0x00, 0x00,
  0x04, 0x00, 0x00, 0x00, 0xff, 0xff, 0xff, 0xff, 0x18, 0x00, 0x00, 0x00,
  0x05, 0x00, 0x00, 0x00, 0x04, 0x00, 0x00, 0x00, 0x6c, 0xee, 0xff, 0xff,
  0x08, 0x00, 0x00, 0x00, 0x14, 0x00, 0x00, 0x00, 0x01, 0x00, 0x00, 0x00,
  0x80, 0xff, 0xff, 0xff, 0xff, 0xff, 0xff, 0xff, 0x00, 0x00, 0x00, 0x00,
  0x01, 0x00, 0x00, 0x00, 0x6c, 0xa3, 0x9c, 0x3c, 0x5d, 0x00, 0x00, 0x00,
  0x73, 0x65, 0x71, 0x75, 0x65, 0x6e, 0x74, 0x69, 0x61, 0x6c, 0x5f, 0x31,
  0x2f, 0x63, 0x6f, 0x6e, 0x76, 0x32, 0x64, 0x5f, 0x33, 0x5f, 0x31, 0x2f,
  0x52, 0x65, 0x6c, 0x75, 0x3b, 0x73, 0x65, 0x71, 0x75, 0x65, 0x6e, 0x74,
  0x69, 0x61, 0x6c, 0x5f, 0x31, 0x2f, 0x63, 0x6f, 0x6e, 0x76, 0x32, 0x64,
  0x5f, 0x33, 0x5f, 0x31, 0x2f, 0x61, 0x64, 0x64, 0x3b, 0x73, 0x65, 0x71,
  0x75, 0x65, 0x6e, 0x74, 0x69, 0x61, 0x6c, 0x5f, 0x31, 0x2f, 0x63, 0x6f,
  0x6e, 0x76, 0x32, 0x64, 0x5f, 0x33, 0x5f, 0x31, 0x2f, 0x63, 0x6f, 0x6e,
  0x76, 0x6f, 0x6c, 0x75, 0x74, 0x69, 0x6f, 0x6e, 0x3b, 0x00, 0x00, 0x00,
  0x04, 0x00, 0x00, 0x00, 0x01, 0x00, 0x00, 0x00, 0x18, 0x00, 0x00, 0x00,
  0x05, 0x00, 0x00, 0x00, 0x04, 0x00, 0x00, 0x00, 0xae, 0xfb, 0xff, 0xff,
  0x00, 0x00, 0x00, 0x01, 0x18, 0x00, 0x00, 0x00, 0x28, 0x00, 0x00, 0x00,
  0x44, 0x00, 0x00, 0x00, 0x17, 0x00, 0x00, 0x00, 0x00, 0x00, 0x00, 0x09,
  0x68, 0x00, 0x00, 0x00, 0x04, 0x00, 0x00, 0x00, 0xff, 0xff, 0xff, 0xff,
  0x18, 0x00, 0x00, 0x00, 0x05, 0x00, 0x00, 0x00, 0x04, 0x00, 0x00, 0x00,
  0x3c, 0xef, 0xff, 0xff, 0x08, 0x00, 0x00, 0x00, 0x10, 0x00, 0x00, 0x00,
  0x01, 0x00, 0x00, 0x00, 0x80, 0xff, 0xff, 0xff, 0xff, 0xff, 0xff, 0xff,
  0x01, 0x00, 0x00, 0x00, 0xab, 0xf3, 0xec, 0x3c, 0x28, 0x00, 0x00, 0x00,
  0x73, 0x65, 0x71, 0x75, 0x65, 0x6e, 0x74, 0x69, 0x61, 0x6c, 0x5f, 0x31,
  0x2f, 0x6d, 0x61, 0x78, 0x5f, 0x70, 0x6f, 0x6f, 0x6c, 0x69, 0x6e, 0x67,
  0x32, 0x64, 0x5f, 0x32, 0x5f, 0x31, 0x2f, 0x4d, 0x61, 0x78, 0x50, 0x6f,
  0x6f, 0x6c, 0x32, 0x64, 0x00, 0x00, 0x00, 0x00, 0x04, 0x00, 0x00, 0x00,
  0x01, 0x00, 0x00, 0x00, 0x18, 0x00, 0x00, 0x00, 0x05, 0x00, 0x00, 0x00,
  0x04, 0x00, 0x00, 0x00, 0x46, 0xfc, 0xff, 0xff, 0x00, 0x00, 0x00, 0x01,
  0x18, 0x00, 0x00, 0x00, 0x28, 0x00, 0x00, 0x00, 0x48, 0x00, 0x00, 0x00,
  0x16, 0x00, 0x00, 0x00, 0x00, 0x00, 0x00, 0x09, 0xa0, 0x00, 0x00, 0x00,
  0x04, 0x00, 0x00, 0x00, 0xff, 0xff, 0xff, 0xff, 0x31, 0x00, 0x00, 0x00,
  0x0a, 0x00, 0x00, 0x00, 0x04, 0x00, 0x00, 0x00, 0xd4, 0xef, 0xff, 0xff,
  0x08, 0x00, 0x00, 0x00, 0x14, 0x00, 0x00, 0x00, 0x01, 0x00, 0x00, 0x00,
  0x80, 0xff, 0xff, 0xff, 0xff, 0xff, 0xff, 0xff, 0x00, 0x00, 0x00, 0x00,
  0x01, 0x00, 0x00, 0x00, 0xab, 0xf3, 0xec, 0x3c, 0x5d, 0x00, 0x00, 0x00,
  0x73, 0x65, 0x71, 0x75, 0x65, 0x6e, 0x74, 0x69, 0x61, 0x6c, 0x5f, 0x31,
  0x2f, 0x63, 0x6f, 0x6e, 0x76, 0x32, 0x64, 0x5f, 0x32, 0x5f, 0x31, 0x2f,
  0x52, 0x65, 0x6c, 0x75, 0x3b, 0x73, 0x65, 0x71, 0x75, 0x65, 0x6e, 0x74,
  0x69, 0x61, 0x6c, 0x5f, 0x31, 0x2f, 0x63, 0x6f, 0x6e, 0x76, 0x32, 0x64,
  0x5f, 0x32, 0x5f, 0x31, 0x2f, 0x61, 0x64, 0x64, 0x3b, 0x73, 0x65, 0x71,
  0x75, 0x65, 0x6e, 0x74, 0x69, 0x61, 0x6c, 0x5f, 0x31, 0x2f, 0x63, 0x6f,
  0x6e, 0x76, 0x32, 0x64, 0x5f, 0x32, 0x5f, 0x31, 0x2f, 0x63, 0x6f, 0x6e,
  0x76, 0x6f, 0x6c, 0x75, 0x74, 0x69, 0x6f, 0x6e, 0x3b, 0x00, 0x00, 0x00,
  0x04, 0x00, 0x00, 0x00, 0x01, 0x00, 0x00, 0x00, 0x31, 0x00, 0x00, 0x00,
  0x0a, 0x00, 0x00, 0x00, 0x04, 0x00, 0x00, 0x00, 0x16, 0xfd, 0xff, 0xff,
  0x00, 0x00, 0x00, 0x01, 0x18, 0x00, 0x00, 0x00, 0x28, 0x00, 0x00, 0x00,
  0x44, 0x00, 0x00, 0x00, 0x15, 0x00, 0x00, 0x00, 0x00, 0x00, 0x00, 0x09,
  0x68, 0x00, 0x00, 0x00, 0x04, 0x00, 0x00, 0x00, 0xff, 0xff, 0xff, 0xff,
  0x31, 0x00, 0x00, 0x00, 0x0a, 0x00, 0x00, 0x00, 0x04, 0x00, 0x00, 0x00,
  0xa4, 0xf0, 0xff, 0xff, 0x08, 0x00, 0x00, 0x00, 0x10, 0x00, 0x00, 0x00,
  0x01, 0x00, 0x00, 0x00, 0x80, 0xff, 0xff, 0xff, 0xff, 0xff, 0xff, 0xff,
  0x01, 0x00, 0x00, 0x00, 0x55, 0xf7, 0xba, 0x3c, 0x28, 0x00, 0x00, 0x00,
  0x73, 0x65, 0x71, 0x75, 0x65, 0x6e, 0x74, 0x69, 0x61, 0x6c, 0x5f, 0x31,
  0x2f, 0x6d, 0x61, 0x78, 0x5f, 0x70, 0x6f, 0x6f, 0x6c, 0x69, 0x6e, 0x67,
  0x32, 0x64, 0x5f, 0x31, 0x5f, 0x32, 0x2f, 0x4d, 0x61, 0x78, 0x50, 0x6f,
  0x6f, 0x6c, 0x32, 0x64, 0x00, 0x00, 0x00, 0x00, 0x04, 0x00, 0x00, 0x00,
  0x01, 0x00, 0x00, 0x00, 0x31, 0x00, 0x00, 0x00, 0x0a, 0x00, 0x00, 0x00,
  0x04, 0x00, 0x00, 0x00, 0xae, 0xfd, 0xff, 0xff, 0x00, 0x00, 0x00, 0x01,
  0x18, 0x00, 0x00, 0x00, 0x28, 0x00, 0x00, 0x00, 0x48, 0x00, 0x00, 0x00,
  0x14, 0x00, 0x00, 0x00, 0x00, 0x00, 0x00, 0x09, 0xc0, 0x00, 0x00, 0x00,
  0x04, 0x00, 0x00, 0x00, 0xff, 0xff, 0xff, 0xff, 0x63, 0x00, 0x00, 0x00,
  0x15, 0x00, 0x00, 0x00, 0x04, 0x00, 0x00, 0x00, 0x3c, 0xf1, 0xff, 0xff,
  0x08, 0x00, 0x00, 0x00, 0x14, 0x00, 0x00, 0x00, 0x01, 0x00, 0x00, 0x00,
  0x80, 0xff, 0xff, 0xff, 0xff, 0xff, 0xff, 0xff, 0x00, 0x00, 0x00, 0x00,
  0x01, 0x00, 0x00, 0x00, 0x55, 0xf7, 0xba, 0x3c, 0x7c, 0x00, 0x00, 0x00,
  0x73, 0x65, 0x71, 0x75, 0x65, 0x6e, 0x74, 0x69, 0x61, 0x6c, 0x5f, 0x31,
  0x2f, 0x63, 0x6f, 0x6e, 0x76, 0x32, 0x64, 0x5f, 0x31, 0x5f, 0x32, 0x2f,
  0x52, 0x65, 0x6c, 0x75, 0x3b, 0x73, 0x65, 0x71, 0x75, 0x65, 0x6e, 0x74,
  0x69, 0x61, 0x6c, 0x5f, 0x31, 0x2f, 0x63, 0x6f, 0x6e, 0x76, 0x32, 0x64,
  0x5f, 0x31, 0x5f, 0x32, 0x2f, 0x61, 0x64, 0x64, 0x3b, 0x73, 0x65, 0x71,
  0x75, 0x65, 0x6e, 0x74, 0x69, 0x61, 0x6c, 0x5f, 0x31, 0x2f, 0x63, 0x6f,
  0x6e, 0x76, 0x32, 0x64, 0x5f, 0x31, 0x5f, 0x32, 0x2f, 0x63, 0x6f, 0x6e,
  0x76, 0x6f, 0x6c, 0x75, 0x74, 0x69, 0x6f, 0x6e, 0x3b, 0x73, 0x65, 0x71,
  0x75, 0x65, 0x6e, 0x74, 0x69, 0x61, 0x6c, 0x5f, 0x31, 0x2f, 0x63, 0x6f,
  0x6e, 0x76, 0x32, 0x64, 0x5f, 0x31, 0x5f, 0x32, 0x2f, 0x52, 0x65, 0x73,
  0x68, 0x61, 0x70, 0x65, 0x00, 0x00, 0x00, 0x00, 0x04, 0x00, 0x00, 0x00,
  0x01, 0x00, 0x00, 0x00, 0x63, 0x00, 0x00, 0x00, 0x15, 0x00, 0x00, 0x00,
  0x04, 0x00, 0x00, 0x00, 0x9e, 0xfe, 0xff, 0xff, 0x00, 0x00, 0x00, 0x01,
  0x18, 0x00, 0x00, 0x00, 0x28, 0x00, 0x00, 0x00, 0x48, 0x00, 0x00, 0x00,
  0x13, 0x00, 0x00, 0x00, 0x00, 0x00, 0x00, 0x09, 0x68, 0x00, 0x00, 0x00,
  0x04, 0x00, 0x00, 0x00, 0xff, 0xff, 0xff, 0xff, 0x63, 0x00, 0x00, 0x00,
  0x15, 0x00, 0x00, 0x00, 0x04, 0x00, 0x00, 0x00, 0x2c, 0xf2, 0xff, 0xff,
  0x08, 0x00, 0x00, 0x00, 0x14, 0x00, 0x00, 0x00, 0x01, 0x00, 0x00, 0x00,
  0x80, 0xff, 0xff, 0xff, 0xff, 0xff, 0xff, 0xff, 0x00, 0x00, 0x00, 0x00,
  0x01, 0x00, 0x00, 0x00, 0x65, 0x38, 0xbe, 0x3c, 0x26, 0x00, 0x00, 0x00,
  0x73, 0x65, 0x71, 0x75, 0x65, 0x6e, 0x74, 0x69, 0x61, 0x6c, 0x5f, 0x31,
  0x2f, 0x6d, 0x61, 0x78, 0x5f, 0x70, 0x6f, 0x6f, 0x6c, 0x69, 0x6e, 0x67,
  0x32, 0x64, 0x5f, 0x31, 0x2f, 0x4d, 0x61, 0x78, 0x50, 0x6f, 0x6f, 0x6c,
  0x32, 0x64, 0x00, 0x00, 0x04, 0x00, 0x00, 0x00, 0x01, 0x00, 0x00, 0x00,
  0x63, 0x00, 0x00, 0x00, 0x15, 0x00, 0x00, 0x00, 0x04, 0x00, 0x00, 0x00,
  0x36, 0xff, 0xff, 0xff, 0x00, 0x00, 0x00, 0x01, 0x18, 0x00, 0x00, 0x00,
  0x28, 0x00, 0x00, 0x00, 0x44, 0x00, 0x00, 0x00, 0x12, 0x00, 0x00, 0x00,
  0x00, 0x00, 0x00, 0x09, 0x98, 0x00, 0x00, 0x00, 0x04, 0x00, 0x00, 0x00,
  0xff, 0xff, 0xff, 0xff, 0xc7, 0x00, 0x00, 0x00, 0x2b, 0x00, 0x00, 0x00,
  0x04, 0x00, 0x00, 0x00, 0xc4, 0xf2, 0xff, 0xff, 0x08, 0x00, 0x00, 0x00,
  0x10, 0x00, 0x00, 0x00, 0x01, 0x00, 0x00, 0x00, 0x80, 0xff, 0xff, 0xff,
  0xff, 0xff, 0xff, 0xff, 0x01, 0x00, 0x00, 0x00, 0x65, 0x38, 0xbe, 0x3c,
  0x58, 0x00, 0x00, 0x00, 0x73, 0x65, 0x71, 0x75, 0x65, 0x6e, 0x74, 0x69,
  0x61, 0x6c, 0x5f, 0x31, 0x2f, 0x63, 0x6f, 0x6e, 0x76, 0x32, 0x64, 0x5f,
  0x31, 0x2f, 0x52, 0x65, 0x6c, 0x75, 0x3b, 0x73, 0x65, 0x71, 0x75, 0x65,
  0x6e, 0x74, 0x69, 0x61, 0x6c, 0x5f, 0x31, 0x2f, 0x63, 0x6f, 0x6e, 0x76,
  0x32, 0x64, 0x5f, 0x31, 0x2f, 0x61, 0x64, 0x64, 0x3b, 0x73, 0x65, 0x71,
  0x75, 0x65, 0x6e, 0x74, 0x69, 0x61, 0x6c, 0x5f, 0x31, 0x2f, 0x63, 0x6f,
  0x6e, 0x76, 0x32, 0x64, 0x5f, 0x31, 0x2f, 0x63, 0x6f, 0x6e, 0x76, 0x6f,
  0x6c, 0x75, 0x74, 0x69, 0x6f, 0x6e, 0x3b, 0x31, 0x00, 0x00, 0x00, 0x00,
  0x04, 0x00, 0x00, 0x00, 0x01, 0x00, 0x00, 0x00, 0xc7, 0x00, 0x00, 0x00,
  0x2b, 0x00, 0x00, 0x00, 0x04, 0x00, 0x00, 0x00, 0x00, 0x00, 0x16, 0x00,
  0x20, 0x00, 0x1c, 0x00, 0x1b, 0x00, 0x14, 0x00, 0x10, 0x00, 0x0c, 0x00,
  0x00, 0x00, 0x00, 0x00, 0x08, 0x00, 0x07, 0x00, 0x16, 0x00, 0x00, 0x00,
  0x00, 0x00, 0x00, 0x01, 0x18, 0x00, 0x00, 0x00, 0x28, 0x00, 0x00, 0x00,
  0x48, 0x00, 0x00, 0x00, 0x11, 0x00, 0x00, 0x00, 0x00, 0x00, 0x00, 0x09,
  0x50, 0x00, 0x00, 0x00, 0x04, 0x00, 0x00, 0x00, 0xff, 0xff, 0xff, 0xff,
  0xc7, 0x00, 0x00, 0x00, 0x2b, 0x00, 0x00, 0x00, 0x01, 0x00, 0x00, 0x00,
  0xa4, 0xf3, 0xff, 0xff, 0x08, 0x00, 0x00, 0x00, 0x14, 0x00, 0x00, 0x00,
  0x01, 0x00, 0x00, 0x00, 0x1d, 0x00, 0x00, 0x00, 0x00, 0x00, 0x00, 0x00,
  0x00, 0x00, 0x00, 0x00, 0x01, 0x00, 0x00, 0x00, 0x58, 0x74, 0x1c, 0x3d,
  0x0c, 0x00, 0x00, 0x00, 0x74, 0x66, 0x6c, 0x2e, 0x71, 0x75, 0x61, 0x6e,
  0x74, 0x69, 0x7a, 0x65, 0x00, 0x00, 0x00, 0x00, 0x04, 0x00, 0x00, 0x00,
  0x01, 0x00, 0x00, 0x00, 0xc7, 0x00, 0x00, 0x00, 0x2b, 0x00, 0x00, 0x00,
  0x01, 0x00, 0x00, 0x00, 0x9e, 0xf3, 0xff, 0xff, 0x00, 0x00, 0x00, 0x01,
  0x14, 0x00, 0x00, 0x00, 0x58, 0x00, 0x00, 0x00, 0x10, 0x00, 0x00, 0x00,
  0x00, 0x00, 0x00, 0x09, 0x64, 0x00, 0x00, 0x00, 0x0c, 0xf4, 0xff, 0xff,
  0x08, 0x00, 0x00, 0x00, 0x2c, 0x00, 0x00, 0x00, 0x04, 0x00, 0x00, 0x00,
  0x00, 0x00, 0x00, 0x00, 0x00, 0x00, 0x00, 0x00, 0x00, 0x00, 0x00, 0x00,
  0x00, 0x00, 0x00, 0x00, 0x00, 0x00, 0x00, 0x00, 0x00, 0x00, 0x00, 0x00,
  0x00, 0x00, 0x00, 0x00, 0x00, 0x00, 0x00, 0x00, 0x00, 0x00, 0x00, 0x00,
  0x04, 0x00, 0x00, 0x00, 0xaf, 0xa5, 0x64, 0x3b, 0xfb, 0x2a, 0x57, 0x3b,
  0x5f, 0x3a, 0x31, 0x3b, 0xa4, 0xfe, 0x2a, 0x3b, 0x13, 0x00, 0x00, 0x00,
  0x74, 0x66, 0x6c, 0x2e, 0x70, 0x73, 0x65, 0x75, 0x64, 0x6f, 0x5f, 0x71,
  0x63, 0x6f, 0x6e, 0x73, 0x74, 0x31, 0x33, 0x00, 0x04, 0x00, 0x00, 0x00,
  0x04, 0x00, 0x00, 0x00, 0x03, 0x00, 0x00, 0x00, 0x03, 0x00, 0x00, 0x00,
  0x01, 0x00, 0x00, 0x00, 0x2e, 0xf4, 0xff, 0xff, 0x00, 0x00, 0x00, 0x01,
  0x14, 0x00, 0x00, 0x00, 0x54, 0x00, 0x00, 0x00, 0x0f, 0x00, 0x00, 0x00,
  0x00, 0x00, 0x00, 0x02, 0x60, 0x00, 0x00, 0x00, 0x9c, 0xf4, 0xff, 0xff,
  0x08, 0x00, 0x00, 0x00, 0x28, 0x00, 0x00, 0x00, 0x04, 0x00, 0x00, 0x00,
  0x00, 0x00, 0x00, 0x00, 0x00, 0x00, 0x00, 0x00, 0x00, 0x00, 0x00, 0x00,
  0x00, 0x00, 0x00, 0x00, 0x00, 0x00, 0x00, 0x00, 0x00, 0x00, 0x00, 0x00,
  0x00, 0x00, 0x00, 0x00, 0x00, 0x00, 0x00, 0x00, 0x04, 0x00, 0x00, 0x00,
  0xe0, 0xbc, 0x0b, 0x39, 0xfa, 0x7f, 0x03, 0x39, 0x3b, 0xa0, 0xd8, 0x38,
  0xc4, 0x01, 0xd1, 0x38, 0x13, 0x00, 0x00, 0x00, 0x74, 0x66, 0x6c, 0x2e,
  0x70, 0x73, 0x65, 0x75, 0x64, 0x6f, 0x5f, 0x71, 0x63, 0x6f, 0x6e, 0x73,
  0x74, 0x31, 0x32, 0x00, 0x01, 0x00, 0x00, 0x00, 0x04, 0x00, 0x00, 0x00,
  0xae, 0xf4, 0xff, 0xff, 0x00, 0x00, 0x00, 0x01, 0x14, 0x00, 0x00, 0x00,
  0x58, 0x00, 0x00, 0x00, 0x0e, 0x00, 0x00, 0x00, 0x00, 0x00, 0x00, 0x09,
  0x64, 0x00, 0x00, 0x00, 0x1c, 0xf5, 0xff, 0xff, 0x08, 0x00, 0x00, 0x00,
  0x2c, 0x00, 0x00, 0x00, 0x04, 0x00, 0x00, 0x00, 0x00, 0x00, 0x00, 0x00,
  0x00, 0x00, 0x00, 0x00, 0x00, 0x00, 0x00, 0x00, 0x00, 0x00, 0x00, 0x00,
  0x00, 0x00, 0x00, 0x00, 0x00, 0x00, 0x00, 0x00, 0x00, 0x00, 0x00, 0x00,
  0x00, 0x00, 0x00, 0x00, 0x00, 0x00, 0x00, 0x00, 0x04, 0x00, 0x00, 0x00,
  0xb0, 0x68, 0x97, 0x3b, 0xb1, 0x4d, 0xa1, 0x3b, 0x77, 0xcd, 0x4e, 0x3b,
  0x49, 0x07, 0x84, 0x3b, 0x13, 0x00, 0x00, 0x00, 0x74, 0x66, 0x6c, 0x2e,
  0x70, 0x73, 0x65, 0x75, 0x64, 0x6f, 0x5f, 0x71, 0x63, 0x6f, 0x6e, 0x73,
  0x74, 0x31, 0x31, 0x00, 0x04, 0x00, 0x00, 0x00, 0x04, 0x00, 0x00, 0x00,
  0x03, 0x00, 0x00, 0x00, 0x03, 0x00, 0x00, 0x00, 0x04, 0x00, 0x00, 0x00,
  0x3e, 0xf5, 0xff, 0xff, 0x00, 0x00, 0x00, 0x01, 0x14, 0x00, 0x00, 0x00,
  0x54, 0x00, 0x00, 0x00, 0x0d, 0x00, 0x00, 0x00, 0x00, 0x00, 0x00, 0x02,
  0x60, 0x00, 0x00, 0x00, 0xac, 0xf5, 0xff, 0xff, 0x08, 0x00, 0x00, 0x00,
  0x28, 0x00, 0x00, 0x00, 0x04, 0x00, 0x00, 0x00, 0x00, 0x00, 0x00, 0x00,
  0x00, 0x00, 0x00, 0x00, 0x00, 0x00, 0x00, 0x00, 0x00, 0x00, 0x00, 0x00,
  0x00, 0x00, 0x00, 0x00, 0x00, 0x00, 0x00, 0x00, 0x00, 0x00, 0x00, 0x00,
  0x00, 0x00, 0x00, 0x00, 0x04, 0x00, 0x00, 0x00, 0x1b, 0x02, 0xe1, 0x38,
  0x64, 0xb6, 0xef, 0x38, 0x0d, 0xaa, 0x99, 0x38, 0xfc, 0x34, 0xc4, 0x38,
  0x13, 0x00, 0x00, 0x00, 0x74, 0x66, 0x6c, 0x2e, 0x70, 0x73, 0x65, 0x75,
  0x64, 0x6f, 0x5f, 0x71, 0x63, 0x6f, 0x6e, 0x73, 0x74, 0x31, 0x30, 0x00,
  0x01, 0x00, 0x00, 0x00, 0x04, 0x00, 0x00, 0x00, 0xbe, 0xf5, 0xff, 0xff,
  0x00, 0x00, 0x00, 0x01, 0x14, 0x00, 0x00, 0x00, 0x58, 0x00, 0x00, 0x00,
  0x0c, 0x00, 0x00, 0x00, 0x00, 0x00, 0x00, 0x09, 0x64, 0x00, 0x00, 0x00,
  0x2c, 0xf6, 0xff, 0xff, 0x08, 0x00, 0x00, 0x00, 0x2c, 0x00, 0x00, 0x00,
  0x04, 0x00, 0x00, 0x00, 0x00, 0x00, 0x00, 0x00, 0x00, 0x00, 0x00, 0x00,
  0x00, 0x00, 0x00, 0x00, 0x00, 0x00, 0x00, 0x00, 0x00, 0x00, 0x00, 0x00,
  0x00, 0x00, 0x00, 0x00, 0x00, 0x00, 0x00, 0x00, 0x00, 0x00, 0x00, 0x00,
  0x00, 0x00, 0x00, 0x00, 0x04, 0x00, 0x00, 0x00, 0xa0, 0x54, 0x85, 0x3b,
  0x52, 0x0a, 0xaa, 0x3b, 0xb2, 0xd2, 0x5b, 0x3b, 0x0d, 0x96, 0xa6, 0x3b,
  0x12, 0x00, 0x00, 0x00, 0x74, 0x66, 0x6c, 0x2e, 0x70, 0x73, 0x65, 0x75,
  0x64, 0x6f, 0x5f, 0x71, 0x63, 0x6f, 0x6e, 0x73, 0x74, 0x39, 0x00, 0x00,
  0x04, 0x00, 0x00, 0x00, 0x04, 0x00, 0x00, 0x00, 0x03, 0x00, 0x00, 0x00,
  0x03, 0x00, 0x00, 0x00, 0x04, 0x00, 0x00, 0x00, 0x4e, 0xf6, 0xff, 0xff,
  0x00, 0x00, 0x00, 0x01, 0x14, 0x00, 0x00, 0x00, 0x54, 0x00, 0x00, 0x00,
  0x0b, 0x00, 0x00, 0x00, 0x00, 0x00, 0x00, 0x02, 0x60, 0x00, 0x00, 0x00,
  0xbc, 0xf6, 0xff, 0xff, 0x08, 0x00, 0x00, 0x00, 0x28, 0x00, 0x00, 0x00,
  0x04, 0x00, 0x00, 0x00, 0x00, 0x00, 0x00, 0x00, 0x00, 0x00, 0x00, 0x00,
  0x00, 0x00, 0x00, 0x00, 0x00, 0x00, 0x00, 0x00, 0x00, 0x00, 0x00, 0x00,
  0x00, 0x00, 0x00, 0x00, 0x00, 0x00, 0x00, 0x00, 0x00, 0x00, 0x00, 0x00,
  0x04, 0x00, 0x00, 0x00, 0x9a, 0xc0, 0xc2, 0x38, 0x90, 0x5f, 0xf8, 0x38,
  0x77, 0x8b, 0xa0, 0x38, 0xef, 0x53, 0xf3, 0x38, 0x12, 0x00, 0x00, 0x00,
  0x74, 0x66, 0x6c, 0x2e, 0x70, 0x73, 0x65, 0x75, 0x64, 0x6f, 0x5f, 0x71,
  0x63, 0x6f, 0x6e, 0x73, 0x74, 0x38, 0x00, 0x00, 0x01, 0x00, 0x00, 0x00,
  0x04, 0x00, 0x00, 0x00, 0xce, 0xf6, 0xff, 0xff, 0x00, 0x00, 0x00, 0x01,
  0x14, 0x00, 0x00, 0x00, 0x58, 0x00, 0x00, 0x00, 0x0a, 0x00, 0x00, 0x00,
  0x00, 0x00, 0x00, 0x09, 0x64, 0x00, 0x00, 0x00, 0x3c, 0xf7, 0xff, 0xff,
  0x08, 0x00, 0x00, 0x00, 0x2c, 0x00, 0x00, 0x00, 0x04, 0x00, 0x00, 0x00,
  0x00, 0x00, 0x00, 0x00, 0x00, 0x00, 0x00, 0x00, 0x00, 0x00, 0x00, 0x00,
  0x00, 0x00, 0x00, 0x00, 0x00, 0x00, 0x00, 0x00, 0x00, 0x00, 0x00, 0x00,
  0x00, 0x00, 0x00, 0x00, 0x00, 0x00, 0x00, 0x00, 0x00, 0x00, 0x00, 0x00,
  0x04, 0x00, 0x00, 0x00, 0x94, 0x6b, 0x98, 0x3b, 0xd8, 0xae, 0x9e, 0x3b,
  0x22, 0xe7, 0x99, 0x3b, 0xa3, 0x23, 0xf9, 0x3b, 0x12, 0x00, 0x00, 0x00,
  0x74, 0x66, 0x6c, 0x2e, 0x70, 0x73, 0x65, 0x75, 0x64, 0x6f, 0x5f, 0x71,
  0x63, 0x6f, 0x6e, 0x73, 0x74, 0x37, 0x00, 0x00, 0x04, 0x00, 0x00, 0x00,
  0x04, 0x00, 0x00, 0x00, 0x03, 0x00, 0x00, 0x00, 0x03, 0x00, 0x00, 0x00,
  0x04, 0x00, 0x00, 0x00, 0x5e, 0xf7, 0xff, 0xff, 0x00, 0x00, 0x00, 0x01,
  0x14, 0x00, 0x00, 0x00, 0x54, 0x00, 0x00, 0x00, 0x09, 0x00, 0x00, 0x00,
  0x00, 0x00, 0x00, 0x02, 0x60, 0x00, 0x00, 0x00, 0xcc, 0xf7, 0xff, 0xff,
  0x08, 0x00, 0x00, 0x00, 0x28, 0x00, 0x00, 0x00, 0x04, 0x00, 0x00, 0x00,
  0x00, 0x00, 0x00, 0x00, 0x00, 0x00, 0x00, 0x00, 0x00, 0x00, 0x00, 0x00,
  0x00, 0x00, 0x00, 0x00, 0x00, 0x00, 0x00, 0x00, 0x00, 0x00, 0x00, 0x00,
  0x00, 0x00, 0x00, 0x00, 0x00, 0x00, 0x00, 0x00, 0x04, 0x00, 0x00, 0x00,
  0x40, 0x14, 0x0d, 0x39, 0x39, 0xe0, 0x12, 0x39, 0x91, 0x73, 0x0e, 0x39,
  0xfe, 0x99, 0x66, 0x39, 0x12, 0x00, 0x00, 0x00, 0x74, 0x66, 0x6c, 0x2e,
  0x70, 0x73, 0x65, 0x75, 0x64, 0x6f, 0x5f, 0x71, 0x63, 0x6f, 0x6e, 0x73,
  0x74, 0x36, 0x00, 0x00, 0x01, 0x00, 0x00, 0x00, 0x04, 0x00, 0x00, 0x00,
  0xde, 0xf7, 0xff, 0xff, 0x00, 0x00, 0x00, 0x01, 0x14, 0x00, 0x00, 0x00,
  0xa8, 0x01, 0x00, 0x00, 0x08, 0x00, 0x00, 0x00, 0x00, 0x00, 0x00, 0x09,
  0xb4, 0x01, 0x00, 0x00, 0x4c, 0xf8, 0xff, 0xff, 0x08, 0x00, 0x00, 0x00,
  0x0c, 0x01, 0x00, 0x00, 0x20, 0x00, 0x00, 0x00, 0x00, 0x00, 0x00, 0x00,
  0x00, 0x00, 0x00, 0x00, 0x00, 0x00, 0x00, 0x00, 0x00, 0x00, 0x00, 0x00,
  0x00, 0x00, 0x00, 0x00, 0x00, 0x00, 0x00, 0x00, 0x00, 0x00, 0x00, 0x00,
  0x00, 0x00, 0x00, 0x00, 0x00, 0x00, 0x00, 0x00, 0x00, 0x00, 0x00, 0x00,
  0x00, 0x00, 0x00, 0x00, 0x00, 0x00, 0x00, 0x00, 0x00, 0x00, 0x00, 0x00,
  0x00, 0x00, 0x00, 0x00, 0x00, 0x00, 0x00, 0x00, 0x00, 0x00, 0x00, 0x00,
  0x00, 0x00, 0x00, 0x00, 0x00, 0x00, 0x00, 0x00, 0x00, 0x00, 0x00, 0x00,
  0x00, 0x00, 0x00, 0x00, 0x00, 0x00, 0x00, 0x00, 0x00, 0x00, 0x00, 0x00,
  0x00, 0x00, 0x00, 0x00, 0x00, 0x00, 0x00, 0x00, 0x00, 0x00, 0x00, 0x00,
  0x00, 0x00, 0x00, 0x00, 0x00, 0x00, 0x00, 0x00, 0x00, 0x00, 0x00, 0x00,
  0x00, 0x00, 0x00, 0x00, 0x00, 0x00, 0x00, 0x00, 0x00, 0x00, 0x00, 0x00,
  0x00, 0x00, 0x00, 0x00, 0x00, 0x00, 0x00, 0x00, 0x00, 0x00, 0x00, 0x00,
  0x00, 0x00, 0x00, 0x00, 0x00, 0x00, 0x00, 0x00, 0x00, 0x00, 0x00, 0x00,
  0x00, 0x00, 0x00, 0x00, 0x00, 0x00, 0x00, 0x00, 0x00, 0x00, 0x00, 0x00,
  0x00, 0x00, 0x00, 0x00, 0x00, 0x00, 0x00, 0x00, 0x00, 0x00, 0x00, 0x00,
  0x00, 0x00, 0x00, 0x00, 0x00, 0x00, 0x00, 0x00, 0x00, 0x00, 0x00, 0x00,
  0x00, 0x00, 0x00, 0x00, 0x00, 0x00, 0x00, 0x00, 0x00, 0x00, 0x00, 0x00,
  0x00, 0x00, 0x00, 0x00, 0x00, 0x00, 0x00, 0x00, 0x00, 0x00, 0x00, 0x00,
  0x00, 0x00, 0x00, 0x00, 0x00, 0x00, 0x00, 0x00, 0x00, 0x00, 0x00, 0x00,
  0x00, 0x00, 0x00, 0x00, 0x00, 0x00, 0x00, 0x00, 0x00, 0x00, 0x00, 0x00,
  0x00, 0x00, 0x00, 0x00, 0x00, 0x00, 0x00, 0x00, 0x00, 0x00, 0x00, 0x00,
  0x00, 0x00, 0x00, 0x00, 0x00, 0x00, 0x00, 0x00, 0x00, 0x00, 0x00, 0x00,
  0x00, 0x00, 0x00, 0x00, 0x20, 0x00, 0x00, 0x00, 0xbe, 0xdb, 0xb3, 0x3b,
  0xc4, 0x06, 0xa2, 0x3b, 0xf4, 0xf8, 0x81, 0x3b, 0x46, 0x9c, 0x87, 0x3b,
  0x4e, 0x7b, 0x4c, 0x3b, 0x55, 0x7f, 0x6b, 0x3b, 0x8d, 0x89, 0x87, 0x3b,
  0x9d, 0x11, 0x98, 0x3b, 0xf2, 0x54, 0x91, 0x3b, 0xf9, 0xbb, 0x77, 0x3b,
  0x33, 0x60, 0x4d, 0x3b, 0x7a, 0x0f, 0x8c, 0x3b, 0x9f, 0x64, 0xa2, 0x3b,
  0x5f, 0xe6, 0xb7, 0x3b, 0x7d, 0xd2, 0xa3, 0x3b, 0x8b, 0xe6, 0x70, 0x3b,
  0x32, 0xe0, 0xc8, 0x3b, 0x1c, 0x9c, 0x9d, 0x3b, 0x53, 0x0e, 0x6c, 0x3b,
  0xcb, 0x85, 0x64, 0x3b, 0x2d, 0xbf, 0x92, 0x3b, 0x1b, 0x69, 0xc1, 0x3b,
  0xc9, 0xb9, 0x50, 0x3b, 0x86, 0x14, 0x91, 0x3b, 0x74, 0x6c, 0x81, 0x3b,
  0xbf, 0xbe, 0x8d, 0x3b, 0xb2, 0x4e, 0x67, 0x3b, 0x3d, 0x68, 0x88, 0x3b,
  0xfd, 0xf6, 0x84, 0x3b, 0x39, 0x60, 0xc7, 0x3b, 0xea, 0xa4, 0x99, 0x3b,
  0x05, 0x9e, 0x73, 0x3b, 0x12, 0x00, 0x00, 0x00, 0x74, 0x66, 0x6c, 0x2e,
  0x70, 0x73, 0x65, 0x75, 0x64, 0x6f, 0x5f, 0x71, 0x63, 0x6f, 0x6e, 0x73,
  0x74, 0x35, 0x00, 0x00, 0x02, 0x00, 0x00, 0x00, 0x20, 0x00, 0x00, 0x00,
  0x60, 0x00, 0x00, 0x00, 0xb6, 0xf9, 0xff, 0xff, 0x00, 0x00, 0x00, 0x01,
  0x14, 0x00, 0x00, 0x00, 0xa4, 0x01, 0x00, 0x00, 0x07, 0x00, 0x00, 0x00,
  0x00, 0x00, 0x00, 0x02, 0xb0, 0x01, 0x00, 0x00, 0x24, 0xfa, 0xff, 0xff,
  0x08, 0x00, 0x00, 0x00, 0x08, 0x01, 0x00, 0x00, 0x20, 0x00, 0x00, 0x00,
  0x00, 0x00, 0x00, 0x00, 0x00, 0x00, 0x00, 0x00, 0x00, 0x00, 0x00, 0x00,
  0x00, 0x00, 0x00, 0x00, 0x00, 0x00, 0x00, 0x00, 0x00, 0x00, 0x00, 0x00,
  0x00, 0x00, 0x00, 0x00, 0x00, 0x00, 0x00, 0x00, 0x00, 0x00, 0x00, 0x00,
  0x00, 0x00, 0x00, 0x00, 0x00, 0x00, 0x00, 0x00, 0x00, 0x00, 0x00, 0x00,
  0x00, 0x00, 0x00, 0x00, 0x00, 0x00, 0x00, 0x00, 0x00, 0x00, 0x00, 0x00,
  0x00, 0x00, 0x00, 0x00, 0x00, 0x00, 0x00, 0x00, 0x00, 0x00, 0x00, 0x00,
  0x00, 0x00, 0x00, 0x00, 0x00, 0x00, 0x00, 0x00, 0x00, 0x00, 0x00, 0x00,
  0x00, 0x00, 0x00, 0x00, 0x00, 0x00, 0x00, 0x00, 0x00, 0x00, 0x00, 0x00,
  0x00, 0x00, 0x00, 0x00, 0x00, 0x00, 0x00, 0x00, 0x00, 0x00, 0x00, 0x00,
  0x00, 0x00, 0x00, 0x00, 0x00, 0x00, 0x00, 0x00, 0x00, 0x00, 0x00, 0x00,
  0x00, 0x00, 0x00, 0x00, 0x00, 0x00, 0x00, 0x00, 0x00, 0x00, 0x00, 0x00,
  0x00, 0x00, 0x00, 0x00, 0x00, 0x00, 0x00, 0x00, 0x00, 0x00, 0x00, 0x00,
  0x00, 0x00, 0x00, 0x00, 0x00, 0x00, 0x00, 0x00, 0x00, 0x00, 0x00, 0x00,
  0x00, 0x00, 0x00, 0x00, 0x00, 0x00, 0x00, 0x00, 0x00, 0x00, 0x00, 0x00,
  0x00, 0x00, 0x00, 0x00, 0x00, 0x00, 0x00, 0x00, 0x00, 0x00, 0x00, 0x00,
  0x00, 0x00, 0x00, 0x00, 0x00, 0x00, 0x00, 0x00, 0x00, 0x00, 0x00, 0x00,
  0x00, 0x00, 0x00, 0x00, 0x00, 0x00, 0x00, 0x00, 0x00, 0x00, 0x00, 0x00,
  0x00, 0x00, 0x00, 0x00, 0x00, 0x00, 0x00, 0x00, 0x00, 0x00, 0x00, 0x00,
  0x00, 0x00, 0x00, 0x00, 0x00, 0x00, 0x00, 0x00, 0x00, 0x00, 0x00, 0x00,
  0x00, 0x00, 0x00, 0x00, 0x00, 0x00, 0x00, 0x00, 0x00, 0x00, 0x00, 0x00,
  0x00, 0x00, 0x00, 0x00, 0x00, 0x00, 0x00, 0x00, 0x00, 0x00, 0x00, 0x00,
  0x00, 0x00, 0x00, 0x00, 0x20, 0x00, 0x00, 0x00, 0x71, 0x19, 0xdc, 0x38,
  0x1c, 0x47, 0xc6, 0x38, 0x5a, 0x0d, 0x9f, 0x38, 0x99, 0xf3, 0xa5, 0x38,
  0x59, 0x3b, 0x7a, 0x38, 0xed, 0x17, 0x90, 0x38, 0xaf, 0xdc, 0xa5, 0x38,
  0x9e, 0x17, 0xba, 0x38, 0x14, 0xd9, 0xb1, 0x38, 0xb1, 0x94, 0x97, 0x38,
  0x74, 0x53, 0x7b, 0x38, 0xaf, 0x65, 0xab, 0x38, 0xf7, 0xb9, 0xc6, 0x38,
  0x8e, 0x0b, 0xe1, 0x38, 0xb1, 0x79, 0xc8, 0x38, 0x45, 0x66, 0x93, 0x38,
  0xb4, 0xd1, 0xf5, 0x38, 0x7c, 0xdf, 0xc0, 0x38, 0x6b, 0x6f, 0x90, 0x38,
  0x69, 0xd3, 0x8b, 0x38, 0x5a, 0x94, 0xb3, 0x38, 0x08, 0xaf, 0xec, 0x38,
  0xea, 0x6c, 0x7f, 0x38, 0x3e, 0x8a, 0xb1, 0x38, 0x6b, 0x61, 0x9e, 0x38,
  0x71, 0x75, 0xad, 0x38, 0x9d, 0x87, 0x8d, 0x38, 0x32, 0xed, 0xa6, 0x38,
  0xc7, 0xb6, 0xa2, 0x38, 0xd2, 0xfb, 0xf3, 0x38, 0x27, 0x05, 0xbc, 0x38,
  0xcf, 0x0f, 0x95, 0x38, 0x12, 0x00, 0x00, 0x00, 0x74, 0x66, 0x6c, 0x2e,
  0x70, 0x73, 0x65, 0x75, 0x64, 0x6f, 0x5f, 0x71, 0x63, 0x6f, 0x6e, 0x73,
  0x74, 0x34, 0x00, 0x00, 0x01, 0x00, 0x00, 0x00, 0x20, 0x00, 0x00, 0x00,
  0x86, 0xfb, 0xff, 0xff, 0x00, 0x00, 0x00, 0x01, 0x14, 0x00, 0x00, 0x00,
  0xa8, 0x01, 0x00, 0x00, 0x06, 0x00, 0x00, 0x00, 0x00, 0x00, 0x00, 0x09,
  0xb4, 0x01, 0x00, 0x00, 0xf4, 0xfb, 0xff, 0xff, 0x08, 0x00, 0x00, 0x00,
  0x0c, 0x01, 0x00, 0x00, 0x20, 0x00, 0x00, 0x00, 0x00, 0x00, 0x00, 0x00,
  0x00, 0x00, 0x00, 0x00, 0x00, 0x00, 0x00, 0x00, 0x00, 0x00, 0x00, 0x00,
  0x00, 0x00, 0x00, 0x00, 0x00, 0x00, 0x00, 0x00, 0x00, 0x00, 0x00, 0x00,
  0x00, 0x00, 0x00, 0x00, 0x00, 0x00, 0x00, 0x00, 0x00, 0x00, 0x00, 0x00,
  0x00, 0x00, 0x00, 0x00, 0x00, 0x00, 0x00, 0x00, 0x00, 0x00, 0x00, 0x00,
  0x00, 0x00, 0x00, 0x00, 0x00, 0x00, 0x00, 0x00, 0x00, 0x00, 0x00, 0x00,
  0x00, 0x00, 0x00, 0x00, 0x00, 0x00, 0x00, 0x00, 0x00, 0x00, 0x00, 0x00,
  0x00, 0x00, 0x00, 0x00, 0x00, 0x00, 0x00, 0x00, 0x00, 0x00, 0x00, 0x00,
  0x00, 0x00, 0x00, 0x00, 0x00, 0x00, 0x00, 0x00, 0x00, 0x00, 0x00, 0x00,
  0x00, 0x00, 0x00, 0x00, 0x00, 0x00, 0x00, 0x00, 0x00, 0x00, 0x00, 0x00,
  0x00, 0x00, 0x00, 0x00, 0x00, 0x00, 0x00, 0x00, 0x00, 0x00, 0x00, 0x00,
  0x00, 0x00, 0x00, 0x00, 0x00, 0x00, 0x00, 0x00, 0x00, 0x00, 0x00, 0x00,
  0x00, 0x00, 0x00, 0x00, 0x00, 0x00, 0x00, 0x00, 0x00, 0x00, 0x00, 0x00,
  0x00, 0x00, 0x00, 0x00, 0x00, 0x00, 0x00, 0x00, 0x00, 0x00, 0x00, 0x00,
  0x00, 0x00, 0x00, 0x00, 0x00, 0x00, 0x00, 0x00, 0x00, 0x00, 0x00, 0x00,
  0x00, 0x00, 0x00, 0x00, 0x00, 0x00, 0x00, 0x00, 0x00, 0x00, 0x00, 0x00,
  0x00, 0x00, 0x00, 0x00, 0x00, 0x00, 0x00, 0x00, 0x00, 0x00, 0x00, 0x00,
  0x00, 0x00, 0x00, 0x00, 0x00, 0x00, 0x00, 0x00, 0x00, 0x00, 0x00, 0x00,
  0x00, 0x00, 0x00, 0x00, 0x00, 0x00, 0x00, 0x00, 0x00, 0x00, 0x00, 0x00,
  0x00, 0x00, 0x00, 0x00, 0x00, 0x00, 0x00, 0x00, 0x00, 0x00, 0x00, 0x00,
  0x00, 0x00, 0x00, 0x00, 0x00, 0x00, 0x00, 0x00, 0x00, 0x00, 0x00, 0x00,
  0x00, 0x00, 0x00, 0x00, 0x00, 0x00, 0x00, 0x00, 0x00, 0x00, 0x00, 0x00,
  0x00, 0x00, 0x00, 0x00, 0x20, 0x00, 0x00, 0x00, 0xa5, 0x2a, 0x6a, 0x3b,
  0x87, 0xb2, 0xac, 0x3b, 0xeb, 0x13, 0x83, 0x3b, 0xed, 0x2c, 0xa5, 0x3b,
  0x1b, 0xd4, 0xad, 0x3b, 0x1a, 0x00, 0x91, 0x3b, 0xfc, 0x0e, 0x7a, 0x3b,
  0x09, 0xf2, 0xba, 0x3b, 0x31, 0x5c, 0x83, 0x3b, 0xac, 0xef, 0x8a, 0x3b,
  0xc4, 0x95, 0x96, 0x3b, 0xb9, 0x69, 0x68, 0x3b, 0xfd, 0xcd, 0x8f, 0x3b,
  0xf7, 0x64, 0x6a, 0x3b, 0x96, 0xf8, 0xa0, 0x3b, 0xb8, 0xd9, 0x6c, 0x3b,
  0xdf, 0x2b, 0x9c, 0x3b, 0x52, 0xe1, 0x5b, 0x3b, 0x98, 0x63, 0x64, 0x3b,
  0x1d, 0x9f, 0xa8, 0x3b, 0x76, 0x47, 0x68, 0x3b, 0x0f, 0x52, 0x88, 0x3b,
  0xb9, 0xff, 0xa7, 0x3b, 0xff, 0x07, 0x02, 0x3c, 0x1c, 0x32, 0x43, 0x3b,
  0x3c, 0x66, 0x66, 0x3b, 0xe4, 0x63, 0x4e, 0x3b, 0x52, 0xde, 0xb6, 0x3b,
  0xba, 0xc8, 0x8c, 0x3b, 0x71, 0xb3, 0x6b, 0x3b, 0xd1, 0xe4, 0x73, 0x3b,
  0x9a, 0x33, 0x83, 0x3b, 0x12, 0x00, 0x00, 0x00, 0x74, 0x66, 0x6c, 0x2e,
  0x70, 0x73, 0x65, 0x75, 0x64, 0x6f, 0x5f, 0x71, 0x63, 0x6f, 0x6e, 0x73,
  0x74, 0x33, 0x00, 0x00, 0x02, 0x00, 0x00, 0x00, 0x20, 0x00, 0x00, 0x00,
  0x20, 0x00, 0x00, 0x00, 0x5e, 0xfd, 0xff, 0xff, 0x00, 0x00, 0x00, 0x01,
  0x14, 0x00, 0x00, 0x00, 0xa4, 0x01, 0x00, 0x00, 0x05, 0x00, 0x00, 0x00,
  0x00, 0x00, 0x00, 0x02, 0xb0, 0x01, 0x00, 0x00, 0xcc, 0xfd, 0xff, 0xff,
  0x08, 0x00, 0x00, 0x00, 0x08, 0x01, 0x00, 0x00, 0x20, 0x00, 0x00, 0x00,
  0x00, 0x00, 0x00, 0x00, 0x00, 0x00, 0x00, 0x00, 0x00, 0x00, 0x00, 0x00,
  0x00, 0x00, 0x00, 0x00, 0x00, 0x00, 0x00, 0x00, 0x00, 0x00, 0x00, 0x00,
  0x00, 0x00, 0x00, 0x00, 0x00, 0x00, 0x00, 0x00, 0x00, 0x00, 0x00, 0x00,
  0x00, 0x00, 0x00, 0x00, 0x00, 0x00, 0x00, 0x00, 0x00, 0x00, 0x00, 0x00,
  0x00, 0x00, 0x00, 0x00, 0x00, 0x00, 0x00, 0x00, 0x00, 0x00, 0x00, 0x00,
  0x00, 0x00, 0x00, 0x00, 0x00, 0x00, 0x00, 0x00, 0x00, 0x00, 0x00, 0x00,
  0x00, 0x00, 0x00, 0x00, 0x00, 0x00, 0x00, 0x00, 0x00, 0x00, 0x00, 0x00,
  0x00, 0x00, 0x00, 0x00, 0x00, 0x00, 0x00, 0x00, 0x00, 0x00, 0x00, 0x00,
  0x00, 0x00, 0x00, 0x00, 0x00, 0x00, 0x00, 0x00, 0x00, 0x00, 0x00, 0x00,
  0x00, 0x00, 0x00, 0x00, 0x00, 0x00, 0x00, 0x00, 0x00, 0x00, 0x00, 0x00,
  0x00, 0x00, 0x00, 0x00, 0x00, 0x00, 0x00, 0x00, 0x00, 0x00, 0x00, 0x00,
  0x00, 0x00, 0x00, 0x00, 0x00, 0x00, 0x00, 0x00, 0x00, 0x00, 0x00, 0x00,
  0x00, 0x00, 0x00, 0x00, 0x00, 0x00, 0x00, 0x00, 0x00, 0x00, 0x00, 0x00,
  0x00, 0x00, 0x00, 0x00, 0x00, 0x00, 0x00, 0x00, 0x00, 0x00, 0x00, 0x00,
  0x00, 0x00, 0x00, 0x00, 0x00, 0x00, 0x00, 0x00, 0x00, 0x00, 0x00, 0x00,
  0x00, 0x00, 0x00, 0x00, 0x00, 0x00, 0x00, 0x00, 0x00, 0x00, 0x00, 0x00,
  0x00, 0x00, 0x00, 0x00, 0x00, 0x00, 0x00, 0x00, 0x00, 0x00, 0x00, 0x00,
  0x00, 0x00, 0x00, 0x00, 0x00, 0x00, 0x00, 0x00, 0x00, 0x00, 0x00, 0x00,
  0x00, 0x00, 0x00, 0x00, 0x00, 0x00, 0x00, 0x00, 0x00, 0x00, 0x00, 0x00,
  0x00, 0x00, 0x00, 0x00, 0x00, 0x00, 0x00, 0x00, 0x00, 0x00, 0x00, 0x00,
  0x00, 0x00, 0x00, 0x00, 0x00, 0x00, 0x00, 0x00, 0x00, 0x00, 0x00, 0x00,
  0x00, 0x00, 0x00, 0x00, 0x20, 0x00, 0x00, 0x00, 0xd5, 0x6e, 0x14, 0x39,
  0x20, 0xf0, 0x5a, 0x39, 0xb0, 0x2c, 0x26, 0x39, 0xef, 0x66, 0x51, 0x39,
  0x3d, 0x5f, 0x5c, 0x39, 0x33, 0xd3, 0x37, 0x39, 0xaa, 0x81, 0x1e, 0x39,
  0x45, 0x00, 0x6d, 0x39, 0x50, 0x88, 0x26, 0x39, 0x19, 0x23, 0x30, 0x39,
  0xaa, 0xe7, 0x3e, 0x39, 0x46, 0x52, 0x13, 0x39, 0x20, 0x4f, 0x36, 0x39,
  0xcd, 0x93, 0x14, 0x39, 0x66, 0x12, 0x4c, 0x39, 0x5b, 0x22, 0x16, 0x39,
  0xb0, 0xfc, 0x45, 0x39, 0x8a, 0x60, 0x0b, 0x39, 0x4c, 0xc5, 0x10, 0x39,
  0x55, 0xc5, 0x55, 0x39, 0x8e, 0x3c, 0x13, 0x39, 0x32, 0xd2, 0x2c, 0x39,
  0x43, 0xfb, 0x54, 0x39, 0x07, 0xd9, 0xa4, 0x39, 0xdd, 0x75, 0xf7, 0x38,
  0x84, 0x0b, 0x12, 0x39, 0x7c, 0xd3, 0x02, 0x39, 0x19, 0xd5, 0x67, 0x39,
  0xd1, 0x7a, 0x32, 0x39, 0xd2, 0x67, 0x15, 0x39, 0x4c, 0x99, 0x1a, 0x39,
  0xdb, 0x54, 0x26, 0x39, 0x12, 0x00, 0x00, 0x00, 0x74, 0x66, 0x6c, 0x2e,
  0x70, 0x73, 0x65, 0x75, 0x64, 0x6f, 0x5f, 0x71, 0x63, 0x6f, 0x6e, 0x73,
  0x74, 0x32, 0x00, 0x00, 0x01, 0x00, 0x00, 0x00, 0x20, 0x00, 0x00, 0x00,
  0x2e, 0xff, 0xff, 0xff, 0x00, 0x00, 0x00, 0x01, 0x14, 0x00, 0x00, 0x00,
  0x34, 0x00, 0x00, 0x00, 0x04, 0x00, 0x00, 0x00, 0x00, 0x00, 0x00, 0x09,
  0x40, 0x00, 0x00, 0x00, 0x9c, 0xff, 0xff, 0xff, 0x08, 0x00, 0x00, 0x00,
  0x14, 0x00, 0x00, 0x00, 0x01, 0x00, 0x00, 0x00, 0x00, 0x00, 0x00, 0x00,
  0x00, 0x00, 0x00, 0x00, 0x00, 0x00, 0x00, 0x00, 0x01, 0x00, 0x00, 0x00,
  0x80, 0x01, 0x42, 0x3c, 0x12, 0x00, 0x00, 0x00, 0x74, 0x66, 0x6c, 0x2e,
  0x70, 0x73, 0x65, 0x75, 0x64, 0x6f, 0x5f, 0x71, 0x63, 0x6f, 0x6e, 0x73,
  0x74, 0x31, 0x00, 0x00, 0x02, 0x00, 0x00, 0x00, 0x01, 0x00, 0x00, 0x00,
  0x20, 0x00, 0x00, 0x00, 0x92, 0xff, 0xff, 0xff, 0x00, 0x00, 0x00, 0x01,
  0x20, 0x00, 0x00, 0x00, 0x40, 0x00, 0x00, 0x00, 0x03, 0x00, 0x00, 0x00,
  0x00, 0x00, 0x00, 0x02, 0x4c, 0x00, 0x00, 0x00, 0x0c, 0x00, 0x0c, 0x00,
  0x00, 0x00, 0x00, 0x00, 0x08, 0x00, 0x04, 0x00, 0x0c, 0x00, 0x00, 0x00,
  0x08, 0x00, 0x00, 0x00, 0x14, 0x00, 0x00, 0x00, 0x01, 0x00, 0x00, 0x00,
  0x00, 0x00, 0x00, 0x00, 0x00, 0x00, 0x00, 0x00, 0x00, 0x00, 0x00, 0x00,
  0x01, 0x00, 0x00, 0x00, 0x32, 0x97, 0xe7, 0x39, 0x11, 0x00, 0x00, 0x00,
  0x74, 0x66, 0x6c, 0x2e, 0x70, 0x73, 0x65, 0x75, 0x64, 0x6f, 0x5f, 0x71,
  0x63, 0x6f, 0x6e, 0x73, 0x74, 0x00, 0x00, 0x00, 0x01, 0x00, 0x00, 0x00,
  0x01, 0x00, 0x00, 0x00, 0x00, 0x00, 0x16, 0x00, 0x1c, 0x00, 0x18, 0x00,
  0x17, 0x00, 0x10, 0x00, 0x0c, 0x00, 0x08, 0x00, 0x00, 0x00, 0x00, 0x00,
  0x00, 0x00, 0x07, 0x00, 0x16, 0x00, 0x00, 0x00, 0x00, 0x00, 0x00, 0x01,
  0x14, 0x00, 0x00, 0x00, 0x14, 0x00, 0x00, 0x00, 0x02, 0x00, 0x00, 0x00,
  0x00, 0x00, 0x00, 0x02, 0x1c, 0x00, 0x00, 0x00, 0x98, 0xff, 0xff, 0xff,
  0x0e, 0x00, 0x00, 0x00, 0x61, 0x72, 0x69, 0x74, 0x68, 0x2e, 0x63, 0x6f,
  0x6e, 0x73, 0x74, 0x61, 0x6e, 0x74, 0x00, 0x00, 0x01, 0x00, 0x00, 0x00,
  0x02, 0x00, 0x00, 0x00, 0x00, 0x00, 0x16, 0x00, 0x1c, 0x00, 0x18, 0x00,
  0x00, 0x00, 0x14, 0x00, 0x10, 0x00, 0x0c, 0x00, 0x00, 0x00, 0x00, 0x00,
  0x08, 0x00, 0x07, 0x00, 0x16, 0x00, 0x00, 0x00, 0x00, 0x00, 0x00, 0x01,
  0x14, 0x00, 0x00, 0x00, 0x28, 0x00, 0x00, 0x00, 0x28, 0x00, 0x00, 0x00,
  0x01, 0x00, 0x00, 0x00, 0x44, 0x00, 0x00, 0x00, 0x04, 0x00, 0x00, 0x00,
  0xff, 0xff, 0xff, 0xff, 0xc7, 0x00, 0x00, 0x00, 0x2b, 0x00, 0x00, 0x00,
  0x01, 0x00, 0x00, 0x00, 0x04, 0x00, 0x04, 0x00, 0x04, 0x00, 0x00, 0x00,
  0x1d, 0x00, 0x00, 0x00, 0x73, 0x65, 0x72, 0x76, 0x69, 0x6e, 0x67, 0x5f,
  0x64, 0x65, 0x66, 0x61, 0x75, 0x6c, 0x74, 0x5f, 0x69, 0x6e, 0x70, 0x75,
  0x74, 0x5f, 0x6c, 0x61, 0x79, 0x65, 0x72, 0x3a, 0x30, 0x00, 0x00, 0x00,
  0x04, 0x00, 0x00, 0x00, 0x01, 0x00, 0x00, 0x00, 0xc7, 0x00, 0x00, 0x00,
  0x2b, 0x00, 0x00, 0x00, 0x01, 0x00, 0x00, 0x00, 0x07, 0x00, 0x00, 0x00,
  0x90, 0x00, 0x00, 0x00, 0x70, 0x00, 0x00, 0x00, 0x50, 0x00, 0x00, 0x00,
  0x40, 0x00, 0x00, 0x00, 0x2c, 0x00, 0x00, 0x00, 0x18, 0x00, 0x00, 0x00,
  0x04, 0x00, 0x00, 0x00, 0xb4, 0xff, 0xff, 0xff, 0x06, 0x00, 0x00, 0x00,
  0x02, 0x00, 0x00, 0x00, 0x00, 0x00, 0x00, 0x06, 0xc4, 0xff, 0xff, 0xff,
  0x0e, 0x00, 0x00, 0x00, 0x02, 0x00, 0x00, 0x00, 0x00, 0x00, 0x00, 0x0e,
  0xd4, 0xff, 0xff, 0xff, 0x09, 0x00, 0x00, 0x00, 0x04, 0x00, 0x00, 0x00,
  0x00, 0x00, 0x00, 0x09, 0xc8, 0xff, 0xff, 0xff, 0x16, 0x00, 0x00, 0x00,
  0x00, 0x00, 0x00, 0x16, 0xf0, 0xff, 0xff, 0xff, 0x11, 0x00, 0x00, 0x00,
  0x02, 0x00, 0x00, 0x00, 0x00, 0x00, 0x00, 0x11, 0x0c, 0x00, 0x10, 0x00,
  0x0f, 0x00, 0x00, 0x00, 0x08, 0x00, 0x04, 0x00, 0x0c, 0x00, 0x00, 0x00,
  0x03, 0x00, 0x00, 0x00, 0x03, 0x00, 0x00, 0x00, 0x00, 0x00, 0x00, 0x03,
  0x0c, 0x00, 0x0c, 0x00, 0x0b, 0x00, 0x00, 0x00, 0x00, 0x00, 0x04, 0x00,
  0x0c, 0x00, 0x00, 0x00, 0x72, 0x00, 0x00, 0x00, 0x00, 0x00, 0x00, 0x72
};
unsigned int wake_word_recognition_model_len = 12984;
